{
  "version": "1.0",
  "truncation": null,
  "padding": null,
  "added_tokens": [
    {
      "id": 0,
      "content": "[PAD]",
      "single_word": false,
      "lstrip": false,
      "rstrip": false,
      "normalized": false,
      "special": true
    },
    {
      "id": 1,
      "content": "[UNK]",
      "single_word": false,
      "lstrip": false,
      "rstrip": false,
      "normalized": false,
      "special": true
    },
    {
      "id": 2,
      "content": "[CLS]",
      "single_word": false,
      "lstrip": false,
      "rstrip": false,
      "normalized": false,
      "special": true
    },
    {
      "id": 3,
      "content": "[SEP]",
      "single_word": false,
      "lstrip": false,
      "rstrip": false,
      "normalized": false,
      "special": true
    },
    {
      "id": 4,
      "content": "[MASK]",
      "single_word": false,
      "lstrip": false,
      "rstrip": false,
      "normalized": false,
      "special": true
    }
  ],
  "normalizer": {
    "type": "BertNormalizer",
    "clean_text": true,
    "handle_chinese_chars": true,
    "strip_accents": null,
    "lowercase": true
  },
  "pre_tokenizer": {
    "type": "BertPreTokenizer"
  },
  "post_processor": {
    "type": "TemplateProcessing",
    "single": [
      {
        "SpecialToken": {
          "id": "[CLS]",
          "type_id": 0
        }
      },
      {
        "Sequence": {
          "id": "A",
          "type_id": 0
        }
      },
      {
        "SpecialToken": {
          "id": "[SEP]",
          "type_id": 0
        }
      }
    ],
    "pair": [
      {
        "SpecialToken": {
          "id": "[CLS]",
          "type_id": 0
        }
      },
      {
        "Sequence": {
          "id": "A",
          "type_id": 0
        }
      },
      {
        "SpecialToken": {
          "id": "[SEP]",
          "type_id": 0
        }
      },
      {
        "Sequence": {
          "id": "B",
          "type_id": 1
        }
      },
      {
        "SpecialToken": {
          "id": "[SEP]",
          "type_id": 1
        }
      }
    ],
    "special_tokens": {
      "[CLS]": {
        "id": "[CLS]",
        "ids": [
          2
        ],
        "tokens": [
          "[CLS]"
        ]
      },
      "[SEP]": {
        "id": "[SEP]",
        "ids": [
          3
        ],
        "tokens": [
          "[SEP]"
        ]
      }
    }
  },
  "decoder": {
    "type": "WordPiece",
    "prefix": "##",
    "cleanup": true
  },
  "model": {
    "type": "WordPiece",
    "unk_token": "[UNK]",
    "continuing_subword_prefix": "##",
    "max_input_chars_per_word": 100,
    "vocab": {
      "[PAD]": 0,
      "[UNK]": 1,
      "[CLS]": 2,
      "[SEP]": 3,
      "[MASK]": 4,
      "!": 5,
      "#": 6,
      "$": 7,
      "%": 8,
      "&": 9,
      "'": 10,
      "(": 11,
      ")": 12,
      "*": 13,
      "+": 14,
      ",": 15,
      "-": 16,
      ".": 17,
      "/": 18,
      "0": 19,
      "1": 20,
      "2": 21,
      "3": 22,
      "4": 23,
      "5": 24,
      "6": 25,
      "7": 26,
      "8": 27,
      "9": 28,
      ":": 29,
      ";": 30,
      "<": 31,
      "=": 32,
      ">": 33,
      "?": 34,
      "@": 35,
      "[": 36,
      "]": 37,
      "^": 38,
      "_": 39,
      "`": 40,
      "a": 41,
      "b": 42,
      "c": 43,
      "d": 44,
      "e": 45,
      "f": 46,
      "g": 47,
      "h": 48,
      "i": 49,
      "j": 50,
      "k": 51,
      "l": 52,
      "m": 53,
      "n": 54,
      "o": 55,
      "p": 56,
      "q": 57,
      "r": 58,
      "s": 59,
      "t": 60,
      "u": 61,
      "v": 62,
      "w": 63,
      "x": 64,
      "y": 65,
      "z": 66,
      "{": 67,
      "|": 68,
      "}": 69,
      "~": 70,
      "¢": 71,
      "£": 72,
      "¤": 73,
      "¥": 74,
      "ª": 75,
      "«": 76,
      "¬": 77,
      "¯": 78,
      "°": 79,
      "²": 80,
      "³": 81,
      "´": 82,
      "·": 83,
      "¸": 84,
      "¹": 85,
      "º": 86,
      "¼": 87,
      "½": 88,
      "¾": 89,
      "×": 90,
      "æ": 91,
      "÷": 92,
      "ø": 93,
      "œ": 94,
      "ƞ": 95,
      "ƫ": 96,
      "ɵ": 97,
      "ʼ": 98,
      "ˆ": 99,
      "δ": 100,
      "θ": 101,
      "π": 102,
      "в": 103,
      "е": 104,
      "с": 105,
      "т": 106,
      "у": 107,
      "–": 108,
      "—": 109,
      "‘": 110,
      "’": 111,
      "‚": 112,
      "“": 113,
      "”": 114,
      "„": 115,
      "‟": 116,
      "•": 117,
      "…": 118,
      "′": 119,
      "⁄": 120,
      "€": 121,
      "₹": 122,
      "™": 123,
      "∆": 124,
      "−": 125,
      "∗": 126,
      "√": 127,
      "∝": 128,
      "∠": 129,
      "∪": 130,
      "≤": 131,
      "≥": 132,
      "♠": 133,
      "🙂": 134,
      "##e": 135,
      "##t": 136,
      "##a": 137,
      "##l": 138,
      "##s": 139,
      "##0": 140,
      "##5": 141,
      "##y": 142,
      "##r": 143,
      "##i": 144,
      "##n": 145,
      "##g": 146,
      "##m": 147,
      "##8": 148,
      "##6": 149,
      "##2": 150,
      "##1": 151,
      "##4": 152,
      "##7": 153,
      "##k": 154,
      "##b": 155,
      "##h": 156,
      "##o": 157,
      "##d": 158,
      "##j": 159,
      "##x": 160,
      "##c": 161,
      "##u": 162,
      "##p": 163,
      "##w": 164,
      "##9": 165,
      "##v": 166,
      "##3": 167,
      "##f": 168,
      "##q": 169,
      "##z": 170,
      "##у": 171,
      "th": 172,
      "the": 173,
      "##er": 174,
      "of": 175,
      "##in": 176,
      "##at": 177,
      "##es": 178,
      "##nd": 179,
      "in": 180,
      "is": 181,
      "##re": 182,
      "##an": 183,
      "##en": 184,
      "##ed": 185,
      "and": 186,
      "##on": 187,
      "##ar": 188,
      "##al": 189,
      "to": 190,
      "wh": 191,
      "##or": 192,
      "##ou": 193,
      "##it": 194,
      "##as": 195,
      "##il": 196,
      "##et": 197,
      "##ing": 198,
      "##om": 199,
      "##ch": 200,
      "##um": 201,
      "##ent": 202,
      "what": 203,
      "if": 204,
      "##is": 205,
      "##ow": 206,
      "##ec": 207,
      "per": 208,
      "##ain": 209,
      "##00": 210,
      "at": 211,
      "##ic": 212,
      "##el": 213,
      "pr": 214,
      "on": 215,
      "are": 216,
      "##iv": 217,
      "##th": 218,
      "##ers": 219,
      "##os": 220,
      "##ion": 221,
      "##im": 222,
      "##ge": 223,
      "##ay": 224,
      "##le": 225,
      "how": 226,
      "##id": 227,
      "by": 228,
      "man": 229,
      "st": 230,
      "##umb": 231,
      "for": 232,
      "numb": 233,
      "##ill": 234,
      "tr": 235,
      "be": 236,
      "##ir": 237,
      "it": 238,
      "##ver": 239,
      "##ol": 240,
      "that": 241,
      "##am": 242,
      "##ut": 243,
      "an": 244,
      "##ac": 245,
      "##est": 246,
      "##pe": 247,
      "##ig": 248,
      "many": 249,
      "##our": 250,
      "re": 251,
      "number": 252,
      "##av": 253,
      "rat": 254,
      "##ter": 255,
      "##ach": 256,
      "##age": 257,
      "pro": 258,
      "##st": 259,
      "10": 260,
      "##ect": 261,
      "##ul": 262,
      "fr": 263,
      "##ear": 264,
      "##ak": 265,
      "rs": 266,
      "km": 267,
      "fin": 268,
      "hour": 269,
      "tw": 270,
      "##cent": 271,
      "will": 272,
      "##ice": 273,
      "day": 274,
      "year": 275,
      "bo": 276,
      "wor": 277,
      "percent": 278,
      "com": 279,
      "##ly": 280,
      "##qu": 281,
      "sh": 282,
      "##ad": 283,
      "work": 284,
      "##ce": 285,
      "al": 286,
      "aver": 287,
      "spe": 288,
      "##ur": 289,
      "can": 290,
      "average": 291,
      "two": 292,
      "was": 293,
      "he": 294,
      "##ith": 295,
      "##pl": 296,
      "find": 297,
      "12": 298,
      "from": 299,
      "20": 300,
      "then": 301,
      "speed": 302,
      "##ore": 303,
      "##nt": 304,
      "each": 305,
      "##tain": 306,
      "than": 307,
      "##ot": 308,
      "as": 309,
      "tim": 310,
      "inc": 311,
      "con": 312,
      "##tal": 313,
      "total": 314,
      "one": 315,
      "##all": 316,
      "train": 317,
      "days": 318,
      "##io": 319,
      "##igh": 320,
      "##ld": 321,
      "##ong": 322,
      "##ive": 323,
      "15": 324,
      "##ist": 325,
      "int": 326,
      "##ater": 327,
      "with": 328,
      "##ud": 329,
      "##art": 330,
      "price": 331,
      "##eg": 332,
      "##ue": 333,
      "##op": 334,
      "do": 335,
      "his": 336,
      "##un": 337,
      "tak": 338,
      "we": 339,
      "ratio": 340,
      "pl": 341,
      "##ount": 342,
      "##ond": 343,
      "##ame": 344,
      "sec": 345,
      "##ess": 346,
      "##and": 347,
      "di": 348,
      "##ct": 349,
      "years": 350,
      "mu": 351,
      "same": 352,
      "##ost": 353,
      "ch": 354,
      "le": 355,
      "div": 356,
      "##ents": 357,
      "sum": 358,
      "##ould": 359,
      "ex": 360,
      "##us": 361,
      "##reas": 362,
      "or": 363,
      "##ation": 364,
      "##are": 365,
      "##ity": 366,
      "mon": 367,
      "hours": 368,
      "##ight": 369,
      "rate": 370,
      "stud": 371,
      "##ave": 372,
      "##ere": 373,
      "integ": 374,
      "time": 375,
      "##ph": 376,
      "long": 377,
      "rem": 378,
      "##act": 379,
      "car": 380,
      "min": 381,
      "sal": 382,
      "##oss": 383,
      "mil": 384,
      "##eng": 385,
      "second": 386,
      "##em": 387,
      "30": 388,
      "its": 389,
      "25": 390,
      "comp": 391,
      "##ast": 392,
      "all": 393,
      "am": 394,
      "val": 395,
      "cost": 396,
      "more": 397,
      "res": 398,
      "##ks": 399,
      "##ell": 400,
      "##ass": 401,
      "met": 402,
      "remain": 403,
      "##ther": 404,
      "have": 405,
      "##ab": 406,
      "##ely": 407,
      "leng": 408,
      "##ip": 409,
      "50": 410,
      "length": 411,
      "has": 412,
      "40": 413,
      "##ang": 414,
      "cer": 415,
      "when": 416,
      "equ": 417,
      "water": 418,
      "there": 419,
      "certain": 420,
      "ne": 421,
      "##ound": 422,
      "sol": 423,
      "##ib": 424,
      "fir": 425,
      "numbers": 426,
      "run": 427,
      "##ich": 428,
      "##fter": 429,
      "##osit": 430,
      "first": 431,
      "inter": 432,
      "after": 433,
      "mar": 434,
      "increas": 435,
      "value": 436,
      "##een": 437,
      "##ant": 438,
      "100": 439,
      "hr": 440,
      "bet": 441,
      "which": 442,
      "su": 443,
      "dist": 444,
      "were": 445,
      "##ween": 446,
      "between": 447,
      "cl": 448,
      "##ure": 449,
      "##der": 450,
      "##oc": 451,
      "##ning": 452,
      "##ff": 453,
      "prof": 454,
      "co": 455,
      "##ate": 456,
      "trav": 457,
      "students": 458,
      "##ance": 459,
      "area": 460,
      "##ag": 461,
      "much": 462,
      "divid": 463,
      "minut": 464,
      "##ap": 465,
      "cm": 466,
      "profit": 467,
      "gr": 468,
      "equal": 469,
      "60": 470,
      "cu": 471,
      "they": 472,
      "jo": 473,
      "squ": 474,
      "ar": 475,
      "interest": 476,
      "ap": 477,
      "##ix": 478,
      "kmph": 479,
      "##ult": 480,
      "amount": 481,
      "their": 482,
      "##ine": 483,
      "##pect": 484,
      "month": 485,
      "miles": 486,
      "##ey": 487,
      "##get": 488,
      "cr": 489,
      "##du": 490,
      "me": 491,
      "travel": 492,
      "dr": 493,
      "##plet": 494,
      "produ": 495,
      "##ank": 496,
      "complet": 497,
      "16": 498,
      "take": 499,
      "##ome": 500,
      "##ary": 501,
      "po": 502,
      "would": 503,
      "##her": 504,
      "kg": 505,
      "##dd": 506,
      "minutes": 507,
      "##000": 508,
      "distance": 509,
      "sell": 510,
      "respect": 511,
      "square": 512,
      "em": 513,
      "mix": 514,
      "##ular": 515,
      "11": 516,
      "gre": 517,
      "##se": 518,
      "inv": 519,
      "posit": 520,
      "##pr": 521,
      "other": 522,
      "##ible": 523,
      "14": 524,
      "age": 525,
      "dig": 526,
      "divided": 527,
      "18": 528,
      "integers": 529,
      "part": 530,
      "##ets": 531,
      "de": 532,
      "weight": 533,
      "##ece": 534,
      "##ively": 535,
      "digit": 536,
      "invest": 537,
      "pa": 538,
      "##ard": 539,
      "##oy": 540,
      "she": 541,
      "##ence": 542,
      "diff": 543,
      "ann": 544,
      "respectively": 545,
      "pi": 546,
      "##gether": 547,
      "##ide": 548,
      "rect": 549,
      "rectang": 550,
      "positive": 551,
      "differ": 552,
      "both": 553,
      "##ish": 554,
      "prob": 555,
      "start": 556,
      "together": 557,
      "fe": 558,
      "##son": 559,
      "##ace": 560,
      "##ility": 561,
      "contain": 562,
      "seconds": 563,
      "##rect": 564,
      "cross": 565,
      "##irc": 566,
      "##ack": 567,
      "##ions": 568,
      "probab": 569,
      "so": 570,
      "person": 571,
      "not": 572,
      "##int": 573,
      "probability": 574,
      "tank": 575,
      "qu": 576,
      "fill": 577,
      "less": 578,
      "times": 579,
      "did": 580,
      "lit": 581,
      "dec": 582,
      "integer": 583,
      "cub": 584,
      "circ": 585,
      "##ies": 586,
      "remainder": 587,
      "add": 588,
      "##ual": 589,
      "##ok": 590,
      "meters": 591,
      "mak": 592,
      "##ose": 593,
      "##ov": 594,
      "##one": 595,
      "24": 596,
      "red": 597,
      "##ire": 598,
      "does": 599,
      "13": 600,
      "bu": 601,
      "000": 602,
      "##wn": 603,
      "##ys": 604,
      "##les": 605,
      "##count": 606,
      "br": 607,
      "##xim": 608,
      "un": 609,
      "sc": 610,
      "45": 611,
      "this": 612,
      "sold": 613,
      "new": 614,
      "ro": 615,
      "##eter": 616,
      "running": 617,
      "##oll": 618,
      "##any": 619,
      "ear": 620,
      "pass": 621,
      "##ploy": 622,
      "employ": 623,
      "##gh": 624,
      "op": 625,
      "##ment": 626,
      "men": 627,
      "19": 628,
      "pe": 629,
      "had": 630,
      "36": 631,
      "##ick": 632,
      "te": 633,
      "##ution": 634,
      "company": 635,
      "wee": 636,
      "dis": 637,
      "least": 638,
      "class": 639,
      "sp": 640,
      "out": 641,
      "go": 642,
      "point": 643,
      "ag": 644,
      "week": 645,
      "complete": 646,
      "##ople": 647,
      "them": 648,
      "80": 649,
      "sim": 650,
      "wal": 651,
      "ever": 652,
      "money": 653,
      "her": 654,
      "divis": 655,
      "product": 656,
      "##ven": 657,
      "people": 658,
      "bus": 659,
      "##ple": 660,
      "##ream": 661,
      "every": 662,
      "who": 663,
      "must": 664,
      "200": 665,
      "but": 666,
      "sm": 667,
      "takes": 668,
      "##ens": 669,
      "up": 670,
      "##od": 671,
      "remaining": 672,
      "direct": 673,
      "increased": 674,
      "##ail": 675,
      "us": 676,
      "incl": 677,
      "35": 678,
      "##ture": 679,
      "cons": 680,
      "end": 681,
      "mach": 682,
      "##ors": 683,
      "##orm": 684,
      "feet": 685,
      "employe": 686,
      "##ough": 687,
      "hal": 688,
      "no": 689,
      "##ft": 690,
      "solution": 691,
      "mixture": 692,
      "pay": 693,
      "salary": 694,
      "small": 695,
      "en": 696,
      "##uring": 697,
      "##res": 698,
      "bl": 699,
      "cand": 700,
      "should": 701,
      "##ock": 702,
      "##ile": 703,
      "half": 704,
      "const": 705,
      "fl": 706,
      "##ree": 707,
      "cover": 708,
      "last": 709,
      "75": 710,
      "discount": 711,
      "##ort": 712,
      "only": 713,
      "alone": 714,
      "##tic": 715,
      "pur": 716,
      "working": 717,
      "rece": 718,
      "##own": 719,
      "appr": 720,
      "mult": 721,
      "appro": 722,
      "##ulation": 723,
      "exact": 724,
      "##ates": 725,
      "earn": 726,
      "play": 727,
      "##ird": 728,
      "##other": 729,
      "approxim": 730,
      "##arg": 731,
      "box": 732,
      "paid": 733,
      "such": 734,
      "70": 735,
      "##ax": 736,
      "difference": 737,
      "##ches": 738,
      "marks": 739,
      "rectangular": 740,
      "exactly": 741,
      "##ild": 742,
      "##pt": 743,
      "walk": 744,
      "pop": 745,
      "21": 746,
      "ball": 747,
      "##chas": 748,
      "purchas": 749,
      "ab": 750,
      "artic": 751,
      "##ade": 752,
      "constant": 753,
      "income": 754,
      "fi": 755,
      "twice": 756,
      "ac": 757,
      "percentage": 758,
      "third": 759,
      "##uc": 760,
      "##eld": 761,
      "vot": 762,
      "##inal": 763,
      "##eters": 764,
      "job": 765,
      "par": 766,
      "poss": 767,
      "ob": 768,
      "##ats": 769,
      "##form": 770,
      "orig": 771,
      "17": 772,
      "finish": 773,
      "population": 774,
      "contains": 775,
      "possible": 776,
      "off": 777,
      "##ep": 778,
      "##ale": 779,
      "##ane": 780,
      "while": 781,
      "90": 782,
      "##aint": 783,
      "sales": 784,
      "another": 785,
      "##ples": 786,
      "sur": 787,
      "employees": 788,
      "rest": 789,
      "you": 790,
      "##ans": 791,
      "over": 792,
      "##ie": 793,
      "candid": 794,
      "original": 795,
      "runs": 796,
      "cap": 797,
      "side": 798,
      "##ry": 799,
      "months": 800,
      "mean": 801,
      "22": 802,
      "old": 803,
      "greater": 804,
      "divisible": 805,
      "rad": 806,
      "##esent": 807,
      "sale": 808,
      "sel": 809,
      "##posit": 810,
      "mark": 811,
      "annual": 812,
      "select": 813,
      "these": 814,
      "##emb": 815,
      "##ives": 816,
      "120": 817,
      "kil": 818,
      "simple": 819,
      "paint": 820,
      "store": 821,
      "el": 822,
      "##ated": 823,
      "##olum": 824,
      "row": 825,
      "sch": 826,
      "boys": 827,
      "into": 828,
      "make": 829,
      "share": 830,
      "rand": 831,
      "increase": 832,
      "##ately": 833,
      "random": 834,
      "unit": 835,
      "during": 836,
      "get": 837,
      "added": 838,
      "##og": 839,
      "##oks": 840,
      "left": 841,
      "pound": 842,
      "selling": 843,
      "##ages": 844,
      "machine": 845,
      "tax": 846,
      "decreas": 847,
      "score": 848,
      "set": 849,
      "##tr": 850,
      "plat": 851,
      "##oup": 852,
      "##action": 853,
      "direction": 854,
      "volum": 855,
      "crosses": 856,
      "radi": 857,
      "compound": 858,
      "ass": 859,
      "##stream": 860,
      "student": 861,
      "32": 862,
      "col": 863,
      "books": 864,
      "##usive": 865,
      "##ces": 866,
      "##ren": 867,
      "##ous": 868,
      "milk": 869,
      "65": 870,
      "cent": 871,
      "##aving": 872,
      "platform": 873,
      "mat": 874,
      "cor": 875,
      "group": 876,
      "piece": 877,
      "rectangle": 878,
      "ma": 879,
      "gall": 880,
      "se": 881,
      "##irl": 882,
      "circle": 883,
      "annum": 884,
      "##ition": 885,
      "inclusive": 886,
      "article": 887,
      "gallon": 888,
      "team": 889,
      "500": 890,
      "high": 891,
      "bas": 892,
      "tri": 893,
      "##ool": 894,
      "reach": 895,
      "school": 896,
      "radius": 897,
      "fact": 898,
      "28": 899,
      "him": 900,
      "ty": 901,
      "fraction": 902,
      "whose": 903,
      "even": 904,
      "trip": 905,
      "still": 906,
      "##way": 907,
      "any": 908,
      "00": 909,
      "wid": 910,
      "different": 911,
      "##co": 912,
      "approximately": 913,
      "##ides": 914,
      "##ection": 915,
      "48": 916,
      "down": 917,
      "##ither": 918,
      "boat": 919,
      "wom": 920,
      "mov": 921,
      "ret": 922,
      "##ward": 923,
      "sells": 924,
      "##iness": 925,
      "girl": 926,
      "##ke": 927,
      "##ull": 928,
      "business": 929,
      "votes": 930,
      "##ived": 931,
      "selected": 932,
      "digits": 933,
      "cy": 934,
      "##ime": 935,
      "##ined": 936,
      "##ought": 937,
      "field": 938,
      "thr": 939,
      "##ares": 940,
      "volume": 941,
      "gain": 942,
      "##imeter": 943,
      "150": 944,
      "opposit": 945,
      "inches": 946,
      "multi": 947,
      "opposite": 948,
      "larg": 949,
      "##ical": 950,
      "liters": 951,
      "city": 952,
      "##urre": 953,
      "taken": 954,
      "##ra": 955,
      "form": 956,
      "shop": 957,
      "42": 958,
      "child": 959,
      "trains": 960,
      "##ied": 961,
      "town": 962,
      "300": 963,
      "##read": 964,
      "kilom": 965,
      "three": 966,
      "height": 967,
      "present": 968,
      "result": 969,
      "##ind": 970,
      "comm": 971,
      "increases": 972,
      "obtain": 973,
      "need": 974,
      "pipe": 975,
      "##erv": 976,
      "##ister": 977,
      "invested": 978,
      "##hn": 979,
      "##ange": 980,
      "john": 981,
      "triang": 982,
      "requ": 983,
      "cube": 984,
      "fo": 985,
      "sl": 986,
      "##wer": 987,
      "memb": 988,
      "cars": 989,
      "room": 990,
      "full": 991,
      "sub": 992,
      "made": 993,
      "filled": 994,
      "##able": 995,
      "55": 996,
      "##ues": 997,
      "##iz": 998,
      "been": 999,
      "##enc": 1000,
      "##ines": 1001,
      "meet": 1002,
      "great": 1003,
      "order": 1004,
      "72": 1005,
      "gets": 1006,
      "##ired": 1007,
      "units": 1008,
      "balls": 1009,
      "ind": 1010,
      "##hol": 1011,
      "##cess": 1012,
      "##aced": 1013,
      "##fore": 1014,
      "##met": 1015,
      "perimeter": 1016,
      "##iven": 1017,
      "##urrent": 1018,
      "sides": 1019,
      "line": 1020,
      "prime": 1021,
      "makes": 1022,
      "bought": 1023,
      "far": 1024,
      "beg": 1025,
      "used": 1026,
      "##fer": 1027,
      "##ows": 1028,
      "comput": 1029,
      "pounds": 1030,
      "loss": 1031,
      "way": 1032,
      "##port": 1033,
      "back": 1034,
      "##ial": 1035,
      "women": 1036,
      "current": 1037,
      "##ithmet": 1038,
      "meter": 1039,
      "arithmet": 1040,
      "greatest": 1041,
      "##ants": 1042,
      "arithmetic": 1043,
      "##ject": 1044,
      "ages": 1045,
      "##cl": 1046,
      "##ord": 1047,
      "among": 1048,
      "##xt": 1049,
      "reg": 1050,
      "triangle": 1051,
      "##arge": 1052,
      "empt": 1053,
      "26": 1054,
      "##ics": 1055,
      "now": 1056,
      "pat": 1057,
      "##te": 1058,
      "next": 1059,
      "##allel": 1060,
      "traveled": 1061,
      "parallel": 1062,
      "23": 1063,
      "li": 1064,
      "##nds": 1065,
      "received": 1066,
      "##ower": 1067,
      "stop": 1068,
      "earned": 1069,
      "capac": 1070,
      "##urn": 1071,
      "monthly": 1072,
      "given": 1073,
      "##ars": 1074,
      "spent": 1075,
      "addition": 1076,
      "bread": 1077,
      "stock": 1078,
      "purchased": 1079,
      "girls": 1080,
      "sq": 1081,
      "pair": 1082,
      "weigh": 1083,
      "buy": 1084,
      "before": 1085,
      "blue": 1086,
      "##illion": 1087,
      "item": 1088,
      "costs": 1089,
      "meas": 1090,
      "capacity": 1091,
      "##ient": 1092,
      "##ination": 1093,
      "ent": 1094,
      "ra": 1095,
      "##day": 1096,
      "could": 1097,
      "##rib": 1098,
      "##pend": 1099,
      "dou": 1100,
      "##ecut": 1101,
      "27": 1102,
      "bec": 1103,
      "along": 1104,
      "smallest": 1105,
      "kilometers": 1106,
      "took": 1107,
      "##ite": 1108,
      "stand": 1109,
      "##aves": 1110,
      "minute": 1111,
      "travels": 1112,
      "##erm": 1113,
      "quest": 1114,
      "doub": 1115,
      "home": 1116,
      "##red": 1117,
      "toward": 1118,
      "required": 1119,
      "##oes": 1120,
      "repl": 1121,
      "alco": 1122,
      "reduc": 1123,
      "alcohol": 1124,
      "##oth": 1125,
      "##inning": 1126,
      "reven": 1127,
      "breadth": 1128,
      "points": 1129,
      "additional": 1130,
      "54": 1131,
      "round": 1132,
      "##ments": 1133,
      "produce": 1134,
      "pre": 1135,
      "station": 1136,
      "##ps": 1137,
      "bag": 1138,
      "##ins": 1139,
      "1000": 1140,
      "pole": 1141,
      "maxim": 1142,
      "##ouse": 1143,
      "width": 1144,
      "##tt": 1145,
      "rent": 1146,
      "workers": 1147,
      "metres": 1148,
      "eng": 1149,
      "walking": 1150,
      "got": 1151,
      "own": 1152,
      "gallons": 1153,
      "members": 1154,
      "600": 1155,
      "where": 1156,
      "place": 1157,
      "199": 1158,
      "##ecutive": 1159,
      "maximum": 1160,
      "bott": 1161,
      "exam": 1162,
      "traveling": 1163,
      "some": 1164,
      "type": 1165,
      "cal": 1166,
      "sw": 1167,
      "empty": 1168,
      "card": 1169,
      "400": 1170,
      "candidate": 1171,
      "computer": 1172,
      "either": 1173,
      "##uct": 1174,
      "##vers": 1175,
      "mixed": 1176,
      "entire": 1177,
      "reduced": 1178,
      "house": 1179,
      "ans": 1180,
      "85": 1181,
      "children": 1182,
      "obtained": 1183,
      "oun": 1184,
      "race": 1185,
      "##per": 1186,
      "includ": 1187,
      "##stom": 1188,
      "book": 1189,
      "custom": 1190,
      "hand": 1191,
      "perio": 1192,
      "dra": 1193,
      "surf": 1194,
      "period": 1195,
      "test": 1196,
      "fem": 1197,
      "def": 1198,
      "cubes": 1199,
      "downstream": 1200,
      "wr": 1201,
      "##als": 1202,
      "consist": 1203,
      "doll": 1204,
      "stream": 1205,
      "##ove": 1206,
      "multiples": 1207,
      "surface": 1208,
      "##ourn": 1209,
      "inst": 1210,
      "candidates": 1211,
      "calc": 1212,
      "journ": 1213,
      "journey": 1214,
      "million": 1215,
      "leaves": 1216,
      "consecutive": 1217,
      "ju": 1218,
      "fu": 1219,
      "ph": 1220,
      "##idge": 1221,
      "started": 1222,
      "litres": 1223,
      "cubic": 1224,
      "circular": 1225,
      "bridge": 1226,
      "green": 1227,
      "correct": 1228,
      "ev": 1229,
      "##gs": 1230,
      "##imeters": 1231,
      "partic": 1232,
      "good": 1233,
      "rec": 1234,
      "son": 1235,
      "##man": 1236,
      "investment": 1237,
      "gas": 1238,
      "tom": 1239,
      "driv": 1240,
      "base": 1241,
      "factor": 1242,
      "calcul": 1243,
      "due": 1244,
      "##ames": 1245,
      "64": 1246,
      "apples": 1247,
      "account": 1248,
      "cister": 1249,
      "right": 1250,
      "##ts": 1251,
      "##ric": 1252,
      "##ise": 1253,
      "cistern": 1254,
      "worked": 1255,
      "open": 1256,
      "math": 1257,
      "33": 1258,
      "##ams": 1259,
      "##ped": 1260,
      "##icket": 1261,
      "answer": 1262,
      "speeds": 1263,
      "list": 1264,
      "cont": 1265,
      "##nings": 1266,
      "four": 1267,
      "persons": 1268,
      "##tract": 1269,
      "56": 1270,
      "##rees": 1271,
      "starts": 1272,
      "##eper": 1273,
      "moving": 1274,
      "800": 1275,
      "wall": 1276,
      "##ting": 1277,
      "44": 1278,
      "white": 1279,
      "works": 1280,
      "decreased": 1281,
      "52": 1282,
      "ins": 1283,
      "##omes": 1284,
      "multip": 1285,
      "centimeters": 1286,
      "ad": 1287,
      "later": 1288,
      "##ips": 1289,
      "dep": 1290,
      "dim": 1291,
      "##old": 1292,
      "##agon": 1293,
      "covered": 1294,
      "larger": 1295,
      "exce": 1296,
      "completed": 1297,
      "34": 1298,
      "whe": 1299,
      "quot": 1300,
      "##uary": 1301,
      "##vel": 1302,
      "travell": 1303,
      "manag": 1304,
      "parts": 1305,
      "bor": 1306,
      "diam": 1307,
      "machines": 1308,
      "lo": 1309,
      "ed": 1310,
      "cloth": 1311,
      "squares": 1312,
      "female": 1313,
      "##ia": 1314,
      "##aster": 1315,
      "##ickets": 1316,
      "beginning": 1317,
      "mile": 1318,
      "im": 1319,
      "wide": 1320,
      "head": 1321,
      "whole": 1322,
      "marb": 1323,
      "buys": 1324,
      "boxes": 1325,
      "towards": 1326,
      "##vi": 1327,
      "repr": 1328,
      "surv": 1329,
      "term": 1330,
      "ounces": 1331,
      "dollars": 1332,
      "odd": 1333,
      "worth": 1334,
      "diagon": 1335,
      "assum": 1336,
      "pack": 1337,
      "##iss": 1338,
      "drawn": 1339,
      "quotient": 1340,
      "##ead": 1341,
      "##ner": 1342,
      "retail": 1343,
      "pap": 1344,
      "being": 1345,
      "directions": 1346,
      "##aneous": 1347,
      "put": 1348,
      "saving": 1349,
      "##ger": 1350,
      "##out": 1351,
      "##amil": 1352,
      "flo": 1353,
      "faster": 1354,
      "post": 1355,
      "penc": 1356,
      "distrib": 1357,
      "pencil": 1358,
      "##air": 1359,
      "##ape": 1360,
      "truc": 1361,
      "##ipes": 1362,
      "profits": 1363,
      "count": 1364,
      "large": 1365,
      "##so": 1366,
      "also": 1367,
      "##ultaneous": 1368,
      "simultaneous": 1369,
      "upstream": 1370,
      "food": 1371,
      "exceed": 1372,
      "famil": 1373,
      "##uf": 1374,
      "manuf": 1375,
      "charg": 1376,
      "##ference": 1377,
      "manufact": 1378,
      "250": 1379,
      "savings": 1380,
      "build": 1381,
      "##ordin": 1382,
      "##80": 1383,
      "factors": 1384,
      "39": 1385,
      "pens": 1386,
      "plot": 1387,
      "smaller": 1388,
      "purchase": 1389,
      "farm": 1390,
      "99": 1391,
      "##iture": 1392,
      "read": 1393,
      "140": 1394,
      "goes": 1395,
      "diameter": 1396,
      "tel": 1397,
      "coordin": 1398,
      "again": 1399,
      "park": 1400,
      "##keeper": 1401,
      "revenue": 1402,
      "bi": 1403,
      "pipes": 1404,
      "serv": 1405,
      "##owed": 1406,
      "##ake": 1407,
      "sug": 1408,
      "##press": 1409,
      "goods": 1410,
      "divide": 1411,
      "found": 1412,
      "let": 1413,
      "##if": 1414,
      "##osen": 1415,
      "comb": 1416,
      "apart": 1417,
      "replaced": 1418,
      "simultaneously": 1419,
      "31": 1420,
      "ru": 1421,
      "##atch": 1422,
      "##iles": 1423,
      "46": 1424,
      "xy": 1425,
      "frie": 1426,
      "shopkeeper": 1427,
      "youn": 1428,
      "bill": 1429,
      "cas": 1430,
      "land": 1431,
      "mph": 1432,
      "road": 1433,
      "customer": 1434,
      "rates": 1435,
      "may": 1436,
      "##imal": 1437,
      "teach": 1438,
      "election": 1439,
      "wheel": 1440,
      "med": 1441,
      "siz": 1442,
      "##ign": 1443,
      "180": 1444,
      "cyl": 1445,
      "through": 1446,
      "coll": 1447,
      "##ball": 1448,
      "floor": 1449,
      "act": 1450,
      "male": 1451,
      "##ert": 1452,
      "##inder": 1453,
      "##oses": 1454,
      "largest": 1455,
      "fuel": 1456,
      "multiple": 1457,
      "62": 1458,
      "having": 1459,
      "sing": 1460,
      "##ners": 1461,
      "##imum": 1462,
      "dividing": 1463,
      "pays": 1464,
      "compounded": 1465,
      "pol": 1466,
      "##ee": 1467,
      "ang": 1468,
      "plan": 1469,
      "##ian": 1470,
      "chem": 1471,
      "randomly": 1472,
      "inch": 1473,
      "##lege": 1474,
      "trans": 1475,
      "choc": 1476,
      "longer": 1477,
      "##anges": 1478,
      "liter": 1479,
      "passes": 1480,
      "elect": 1481,
      "college": 1482,
      "pairs": 1483,
      "chocol": 1484,
      "jar": 1485,
      "##ve": 1486,
      "minimum": 1487,
      "110": 1488,
      "receives": 1489,
      "project": 1490,
      "players": 1491,
      "tickets": 1492,
      "vess": 1493,
      "equally": 1494,
      "arr": 1495,
      "160": 1496,
      "brand": 1497,
      "##olled": 1498,
      "reaches": 1499,
      "vessel": 1500,
      "deg": 1501,
      "##50": 1502,
      "chosen": 1503,
      "##ared": 1504,
      "grams": 1505,
      "products": 1506,
      "regular": 1507,
      "nor": 1508,
      "##utions": 1509,
      "240": 1510,
      "approximate": 1511,
      "##ub": 1512,
      "##aved": 1513,
      "survey": 1514,
      "family": 1515,
      "37": 1516,
      "cut": 1517,
      "dest": 1518,
      "exp": 1519,
      "investing": 1520,
      "##led": 1521,
      "##ram": 1522,
      "##ium": 1523,
      "decimal": 1524,
      "ago": 1525,
      "cards": 1526,
      "43": 1527,
      "av": 1528,
      "vis": 1529,
      "circum": 1530,
      "above": 1531,
      "becomes": 1532,
      "pencils": 1533,
      "63": 1534,
      "non": 1535,
      "##ures": 1536,
      "placed": 1537,
      "clock": 1538,
      "employee": 1539,
      "marbles": 1540,
      "paper": 1541,
      "low": 1542,
      "process": 1543,
      "leak": 1544,
      "quant": 1545,
      "actual": 1546,
      "destination": 1547,
      "cop": 1548,
      "gard": 1549,
      "##uit": 1550,
      "##ices": 1551,
      "salt": 1552,
      "metre": 1553,
      "cricket": 1554,
      "invests": 1555,
      "return": 1556,
      "consists": 1557,
      "travelling": 1558,
      "yard": 1559,
      "##ided": 1560,
      "track": 1561,
      "##quid": 1562,
      "worker": 1563,
      "1200": 1564,
      "equation": 1565,
      "liquid": 1566,
      "measure": 1567,
      "borr": 1568,
      "##ink": 1569,
      "boy": 1570,
      "##ocks": 1571,
      "covers": 1572,
      "cups": 1573,
      "depart": 1574,
      "5000": 1575,
      "jan": 1576,
      "jane": 1577,
      "tree": 1578,
      "##ced": 1579,
      "those": 1580,
      "##ating": 1581,
      "expend": 1582,
      "engine": 1583,
      "cond": 1584,
      "##ket": 1585,
      "completely": 1586,
      "annually": 1587,
      "question": 1588,
      "questions": 1589,
      "sugar": 1590,
      "##fth": 1591,
      "##esh": 1592,
      "##ital": 1593,
      "prin": 1594,
      "charges": 1595,
      "garden": 1596,
      "ve": 1597,
      "plane": 1598,
      "excl": 1599,
      "decrease": 1600,
      "##raph": 1601,
      "size": 1602,
      "visit": 1603,
      "tiles": 1604,
      "yearly": 1605,
      "plus": 1606,
      "marked": 1607,
      "inde": 1608,
      "games": 1609,
      "pum": 1610,
      "##oline": 1611,
      "rev": 1612,
      "pool": 1613,
      "going": 1614,
      "rows": 1615,
      "swim": 1616,
      "gasoline": 1617,
      "dimens": 1618,
      "pond": 1619,
      "tas": 1620,
      "alloy": 1621,
      "around": 1622,
      "single": 1623,
      "expenditure": 1624,
      "vill": 1625,
      "##20": 1626,
      "shir": 1627,
      "##plied": 1628,
      "starting": 1629,
      "fifth": 1630,
      "final": 1631,
      "ship": 1632,
      "express": 1633,
      "oranges": 1634,
      "neither": 1635,
      "divisor": 1636,
      "articles": 1637,
      "subtract": 1638,
      "including": 1639,
      "ele": 1640,
      "id": 1641,
      "##au": 1642,
      "##nel": 1643,
      "walks": 1644,
      "juice": 1645,
      "country": 1646,
      "2000": 1647,
      "##cle": 1648,
      "##ission": 1649,
      "truck": 1650,
      "combined": 1651,
      "38": 1652,
      "##eans": 1653,
      "top": 1654,
      "##itt": 1655,
      "level": 1656,
      "orange": 1657,
      "opened": 1658,
      "air": 1659,
      "sy": 1660,
      "##ently": 1661,
      "##aces": 1662,
      "scored": 1663,
      "color": 1664,
      "slower": 1665,
      "66": 1666,
      "96": 1667,
      "bel": 1668,
      "fenc": 1669,
      "produces": 1670,
      "needed": 1671,
      "49": 1672,
      "went": 1673,
      "##10": 1674,
      "##akes": 1675,
      "values": 1676,
      "consum": 1677,
      "widget": 1678,
      "foot": 1679,
      "circumference": 1680,
      "lowest": 1681,
      "exclud": 1682,
      "village": 1683,
      "29": 1684,
      "sam": 1685,
      "sand": 1686,
      "##ier": 1687,
      "125": 1688,
      "dogs": 1689,
      "sup": 1690,
      "passeng": 1691,
      "items": 1692,
      "double": 1693,
      "calculate": 1694,
      "represent": 1695,
      "cycl": 1696,
      "assuming": 1697,
      "january": 1698,
      "gives": 1699,
      "jun": 1700,
      "##hip": 1701,
      "typ": 1702,
      "driver": 1703,
      "rupe": 1704,
      "95": 1705,
      "ke": 1706,
      "lib": 1707,
      "saved": 1708,
      "##atur": 1709,
      "deep": 1710,
      "formed": 1711,
      "coordinate": 1712,
      "900": 1713,
      "cents": 1714,
      "fail": 1715,
      "past": 1716,
      "##up": 1717,
      "##acter": 1718,
      "study": 1719,
      "respective": 1720,
      "contin": 1721,
      "fourth": 1722,
      "cylinder": 1723,
      "dimensions": 1724,
      "task": 1725,
      "78": 1726,
      "84": 1727,
      "##aps": 1728,
      "expens": 1729,
      "win": 1730,
      "taking": 1731,
      "interv": 1732,
      "amounts": 1733,
      "container": 1734,
      "oper": 1735,
      "multiplied": 1736,
      "distribut": 1737,
      "chocolate": 1738,
      "47": 1739,
      "del": 1740,
      "oil": 1741,
      "six": 1742,
      "##arter": 1743,
      "prov": 1744,
      "360": 1745,
      "older": 1746,
      "getting": 1747,
      "particip": 1748,
      "##oured": 1749,
      "##olog": 1750,
      "shares": 1751,
      "spend": 1752,
      "##ations": 1753,
      "partners": 1754,
      "quarter": 1755,
      "higher": 1756,
      "highway": 1757,
      "ident": 1758,
      "68": 1759,
      "bank": 1760,
      "cour": 1761,
      "lent": 1762,
      "pure": 1763,
      "trees": 1764,
      "##let": 1765,
      "##rary": 1766,
      "##ior": 1767,
      "##ator": 1768,
      "##ities": 1769,
      "##uts": 1770,
      "##acks": 1771,
      "proport": 1772,
      "instead": 1773,
      "ge": 1774,
      "hot": 1775,
      "loc": 1776,
      "##atics": 1777,
      "##osed": 1778,
      "##imit": 1779,
      "spends": 1780,
      "cook": 1781,
      "previ": 1782,
      "particular": 1783,
      "previous": 1784,
      "cre": 1785,
      "hors": 1786,
      "limit": 1787,
      "##fect": 1788,
      "##aries": 1789,
      "print": 1790,
      "charge": 1791,
      "decided": 1792,
      "against": 1793,
      "borrowed": 1794,
      "subtracted": 1795,
      "pages": 1796,
      "ride": 1797,
      "once": 1798,
      "chemist": 1799,
      "independ": 1800,
      "library": 1801,
      "##ology": 1802,
      "sph": 1803,
      "innings": 1804,
      "perfect": 1805,
      "mary": 1806,
      "suc": 1807,
      "teacher": 1808,
      "##augh": 1809,
      "fast": 1810,
      "gl": 1811,
      "oc": 1812,
      "sect": 1813,
      "##ield": 1814,
      "fruit": 1815,
      "comes": 1816,
      "drive": 1817,
      "drop": 1818,
      "litre": 1819,
      "offer": 1820,
      "market": 1821,
      "maj": 1822,
      "##uction": 1823,
      "mathem": 1824,
      "service": 1825,
      "bacter": 1826,
      "lines": 1827,
      "mr": 1828,
      "str": 1829,
      "change": 1830,
      "ways": 1831,
      "stopp": 1832,
      "standard": 1833,
      "managers": 1834,
      "diagonal": 1835,
      "proportion": 1836,
      "occ": 1837,
      "mathematics": 1838,
      "ban": 1839,
      "la": 1840,
      "section": 1841,
      "und": 1842,
      "##serv": 1843,
      "##ience": 1844,
      "ste": 1845,
      "without": 1846,
      "deposit": 1847,
      "##ysics": 1848,
      "observ": 1849,
      "needs": 1850,
      "jack": 1851,
      "loses": 1852,
      "riv": 1853,
      "##ling": 1854,
      "init": 1855,
      "##ective": 1856,
      "remov": 1857,
      "##anged": 1858,
      "walked": 1859,
      "bottom": 1860,
      "initial": 1861,
      "58": 1862,
      "82": 1863,
      "shoes": 1864,
      "identical": 1865,
      "cast": 1866,
      "lost": 1867,
      "poured": 1868,
      "##ik": 1869,
      "##ather": 1870,
      "##ony": 1871,
      "spec": 1872,
      "usual": 1873,
      "black": 1874,
      "receive": 1875,
      "horses": 1876,
      "57": 1877,
      "cle": 1878,
      "lab": 1879,
      "rou": 1880,
      "rice": 1881,
      "factory": 1882,
      "younger": 1883,
      "below": 1884,
      "bacteria": 1885,
      "stoppages": 1886,
      "67": 1887,
      "700": 1888,
      "den": 1889,
      "game": 1890,
      "##lish": 1891,
      "##crib": 1892,
      "##ales": 1893,
      "prices": 1894,
      "##ellow": 1895,
      "10000": 1896,
      "enr": 1897,
      "acc": 1898,
      "rais": 1899,
      "cows": 1900,
      "##aur": 1901,
      "##hic": 1902,
      "stra": 1903,
      "##oci": 1904,
      "coff": 1905,
      "joined": 1906,
      "##tend": 1907,
      "edge": 1908,
      "vehic": 1909,
      "rupee": 1910,
      "mot": 1911,
      "sit": 1912,
      "##ever": 1913,
      "##eces": 1914,
      "##ivid": 1915,
      "using": 1916,
      "individ": 1917,
      "coffee": 1918,
      "individual": 1919,
      "8000": 1920,
      "bats": 1921,
      "call": 1922,
      "hold": 1923,
      "jeans": 1924,
      "net": 1925,
      "table": 1926,
      "ver": 1927,
      "##br": 1928,
      "##ores": 1929,
      "##owing": 1930,
      "##olutions": 1931,
      "##urs": 1932,
      "plant": 1933,
      "grad": 1934,
      "pieces": 1935,
      "buc": 1936,
      "capital": 1937,
      "measuring": 1938,
      "standing": 1939,
      "revenues": 1940,
      "friends": 1941,
      "special": 1942,
      "har": 1943,
      "log": 1944,
      "rep": 1945,
      "finished": 1946,
      "resulting": 1947,
      "department": 1948,
      "chemistry": 1949,
      "route": 1950,
      "eff": 1951,
      "mer": 1952,
      "your": 1953,
      "yellow": 1954,
      "##tion": 1955,
      "##bs": 1956,
      "##ping": 1957,
      "areas": 1958,
      "passed": 1959,
      "restaur": 1960,
      "driving": 1961,
      "76": 1962,
      "wages": 1963,
      "equals": 1964,
      "completes": 1965,
      "earns": 1966,
      "defined": 1967,
      "defective": 1968,
      "success": 1969,
      "my": 1970,
      "##ked": 1971,
      "##ory": 1972,
      "##avor": 1973,
      "weighing": 1974,
      "physics": 1975,
      "terms": 1976,
      "biology": 1977,
      "53": 1978,
      "give": 1979,
      "##ms": 1980,
      "##40": 1981,
      "##ina": 1982,
      "##anas": 1983,
      "##ivers": 1984,
      "drain": 1985,
      "included": 1986,
      "degrees": 1987,
      "expenses": 1988,
      "cam": 1989,
      "##ux": 1990,
      "mang": 1991,
      "##ferred": 1992,
      "english": 1993,
      "removed": 1994,
      "98": 1995,
      "fish": 1996,
      "near": 1997,
      "unt": 1998,
      "##na": 1999,
      "##pond": 2000,
      "##erry": 2001,
      "attend": 2002,
      "##plic": 2003,
      "fewer": 2004,
      "root": 2005,
      "tea": 2006,
      "uses": 2007,
      "thrice": 2008,
      "path": 2009,
      "median": 2010,
      "quantity": 2011,
      "sandy": 2012,
      "sphere": 2013,
      "straight": 2014,
      "41": 2015,
      "87": 2016,
      "max": 2017,
      "spr": 2018,
      "tem": 2019,
      "wire": 2020,
      "##ature": 2021,
      "electric": 2022,
      "river": 2023,
      "motor": 2024,
      "merch": 2025,
      "until": 2026,
      "61": 2027,
      "wants": 2028,
      "yield": 2029,
      "##elf": 2030,
      "105": 2031,
      "##egraph": 2032,
      "rob": 2033,
      "associ": 2034,
      "common": 2035,
      "owner": 2036,
      "writt": 2037,
      "retailer": 2038,
      "telegraph": 2039,
      "collection": 2040,
      "fencing": 2041,
      "written": 2042,
      "range": 2043,
      "##enth": 2044,
      "however": 2045,
      "##apes": 2046,
      "grapes": 2047,
      "uni": 2048,
      "played": 2049,
      "examination": 2050,
      "cookies": 2051,
      "vehicles": 2052,
      "batsman": 2053,
      "jul": 2054,
      "sign": 2055,
      "cod": 2056,
      "##agg": 2057,
      "earnings": 2058,
      "commission": 2059,
      "bottles": 2060,
      "failed": 2061,
      "ax": 2062,
      "ft": 2063,
      "norm": 2064,
      "##ron": 2065,
      "contr": 2066,
      "dog": 2067,
      "shirts": 2068,
      "excluding": 2069,
      "81": 2070,
      "away": 2071,
      "gold": 2072,
      "port": 2073,
      "ram": 2074,
      "##ters": 2075,
      "##ob": 2076,
      "bob": 2077,
      "##use": 2078,
      "##ocer": 2079,
      "member": 2080,
      "distributed": 2081,
      "bananas": 2082,
      "sem": 2083,
      "sets": 2084,
      "##put": 2085,
      "toy": 2086,
      "joins": 2087,
      "sport": 2088,
      "output": 2089,
      "210": 2090,
      "overall": 2091,
      "stations": 2092,
      "widgets": 2093,
      "temper": 2094,
      "##25": 2095,
      "##ival": 2096,
      "join": 2097,
      "seats": 2098,
      "teams": 2099,
      "loan": 2100,
      "revolutions": 2101,
      "independently": 2102,
      "4000": 2103,
      "51": 2104,
      "des": 2105,
      "er": 2106,
      "mod": 2107,
      "rose": 2108,
      "##kets": 2109,
      "##zz": 2110,
      "leave": 2111,
      "excess": 2112,
      "grocer": 2113,
      "##oke": 2114,
      "customers": 2115,
      "heads": 2116,
      "angle": 2117,
      "passengers": 2118,
      "normal": 2119,
      "69": 2120,
      "tun": 2121,
      "##uate": 2122,
      "##ons": 2123,
      "trad": 2124,
      "prog": 2125,
      "inters": 2126,
      "costing": 2127,
      "144": 2128,
      "blank": 2129,
      "abs": 2130,
      "farmer": 2131,
      "merchant": 2132,
      "dan": 2133,
      "pet": 2134,
      "##men": 2135,
      "##ched": 2136,
      "chips": 2137,
      "reduction": 2138,
      "130": 2139,
      "weekly": 2140,
      "discounted": 2141,
      "kilog": 2142,
      "weighs": 2143,
      "cyclist": 2144,
      "##agged": 2145,
      "father": 2146,
      "pick": 2147,
      "tagged": 2148,
      "##ried": 2149,
      "##ift": 2150,
      "##oad": 2151,
      "##ese": 2152,
      "##ilater": 2153,
      "1500": 2154,
      "cho": 2155,
      "grade": 2156,
      "scre": 2157,
      "science": 2158,
      "enter": 2159,
      "center": 2160,
      "##indr": 2161,
      "register": 2162,
      "participants": 2163,
      "6000": 2164,
      "deter": 2165,
      "main": 2166,
      "rain": 2167,
      "tin": 2168,
      "##aff": 2169,
      "##cip": 2170,
      "##ari": 2171,
      "att": 2172,
      "##ici": 2173,
      "tracks": 2174,
      "sund": 2175,
      "jog": 2176,
      "produced": 2177,
      "febr": 2178,
      "##ailable": 2179,
      "candy": 2180,
      "office": 2181,
      "diagonals": 2182,
      "available": 2183,
      "princip": 2184,
      "registered": 2185,
      "february": 2186,
      "bal": 2187,
      "mid": 2188,
      "rel": 2189,
      "use": 2190,
      "##ror": 2191,
      "##gest": 2192,
      "state": 2193,
      "apple": 2194,
      "pizz": 2195,
      "feed": 2196,
      "univers": 2197,
      "overt": 2198,
      "handed": 2199,
      "wrong": 2200,
      "blankets": 2201,
      "university": 2202,
      "cats": 2203,
      "eat": 2204,
      "##ope": 2205,
      "##omb": 2206,
      "lengths": 2207,
      "employed": 2208,
      "currently": 2209,
      "dropped": 2210,
      "restaurant": 2211,
      "59": 2212,
      "face": 2213,
      "fren": 2214,
      "##inish": 2215,
      "108": 2216,
      "##urer": 2217,
      "appe": 2218,
      "drives": 2219,
      "cycle": 2220,
      "rented": 2221,
      "correctly": 2222,
      "nearest": 2223,
      "88": 2224,
      "big": 2225,
      "fence": 2226,
      "hel": 2227,
      "turn": 2228,
      "wind": 2229,
      "##ances": 2230,
      "##ables": 2231,
      "club": 2232,
      "devi": 2233,
      "basket": 2234,
      "280": 2235,
      "letters": 2236,
      "provis": 2237,
      "3000": 2238,
      "fur": 2239,
      "fix": 2240,
      "gu": 2241,
      "##ike": 2242,
      "##60": 2243,
      "##ved": 2244,
      "##ero": 2245,
      "##ash": 2246,
      "concent": 2247,
      "##apor": 2248,
      "ground": 2249,
      "kgs": 2250,
      "sod": 2251,
      "originally": 2252,
      "matches": 2253,
      "kilometer": 2254,
      "subject": 2255,
      "doubles": 2256,
      "evapor": 2257,
      "manager": 2258,
      "dividend": 2259,
      "tunnel": 2260,
      "dail": 2261,
      "eg": 2262,
      "light": 2263,
      "mom": 2264,
      "##ges": 2265,
      "##ws": 2266,
      "speak": 2267,
      "increasing": 2268,
      "##ured": 2269,
      "applic": 2270,
      "party": 2271,
      "deal": 2272,
      "player": 2273,
      "##ember": 2274,
      "exceeds": 2275,
      "##aught": 2276,
      "##ilateral": 2277,
      "sunday": 2278,
      "daily": 2279,
      "five": 2280,
      "nuts": 2281,
      "peter": 2282,
      "rh": 2283,
      "ran": 2284,
      "wa": 2285,
      "##ust": 2286,
      "today": 2287,
      "##oles": 2288,
      "##ists": 2289,
      "exper": 2290,
      "##ulty": 2291,
      "paise": 2292,
      "198": 2293,
      "rah": 2294,
      "doubled": 2295,
      "adm": 2296,
      "diminish": 2297,
      "manufacturer": 2298,
      "building": 2299,
      "local": 2300,
      "moment": 2301,
      "bul": 2302,
      "done": 2303,
      "mor": 2304,
      "night": 2305,
      "ox": 2306,
      "##ty": 2307,
      "##head": 2308,
      "##enn": 2309,
      "stre": 2310,
      "fresh": 2311,
      "chair": 2312,
      "##ement": 2313,
      "drove": 2314,
      "circles": 2315,
      "painted": 2316,
      "calculated": 2317,
      "yards": 2318,
      "pump": 2319,
      "successive": 2320,
      "intersect": 2321,
      "fil": 2322,
      "roll": 2323,
      "sun": 2324,
      "thus": 2325,
      "##esents": 2326,
      "wholes": 2327,
      "##tern": 2328,
      "##stem": 2329,
      "board": 2330,
      "cans": 2331,
      "remains": 2332,
      "gross": 2333,
      "containing": 2334,
      "##odity": 2335,
      "commodity": 2336,
      "stops": 2337,
      "hands": 2338,
      "elements": 2339,
      "system": 2340,
      "portion": 2341,
      "bed": 2342,
      "bow": 2343,
      "bak": 2344,
      "dice": 2345,
      "dish": 2346,
      "james": 2347,
      "mich": 2348,
      "natur": 2349,
      "pal": 2350,
      "winning": 2351,
      "##ah": 2352,
      "##uce": 2353,
      "gra": 2354,
      "joe": 2355,
      "making": 2356,
      "decreases": 2357,
      "friend": 2358,
      "mangoes": 2359,
      "natural": 2360,
      "bud": 2361,
      "dem": 2362,
      "nick": 2363,
      "##ration": 2364,
      "##eral": 2365,
      "##ative": 2366,
      "##iction": 2367,
      "##pected": 2368,
      "payment": 2369,
      "vote": 2370,
      "##cover": 2371,
      "meeting": 2372,
      "tele": 2373,
      "course": 2374,
      "absent": 2375,
      "89": 2376,
      "watch": 2377,
      "##med": 2378,
      "##ason": 2379,
      "##ings": 2380,
      "shape": 2381,
      "clim": 2382,
      "##ockets": 2383,
      "slope": 2384,
      "swit": 2385,
      "install": 2386,
      "represents": 2387,
      "major": 2388,
      "sprockets": 2389,
      "budget": 2390,
      "don": 2391,
      "foll": 2392,
      "jill": 2393,
      "polled": 2394,
      "roy": 2395,
      "##els": 2396,
      "carp": 2397,
      "valid": 2398,
      "350": 2399,
      "cash": 2400,
      "enrolled": 2401,
      "temperature": 2402,
      "french": 2403,
      "further": 2404,
      "74": 2405,
      "86": 2406,
      "cat": 2407,
      "est": 2408,
      "fet": 2409,
      "gar": 2410,
      "rail": 2411,
      "vari": 2412,
      "##ef": 2413,
      "##oid": 2414,
      "##ath": 2415,
      "trape": 2416,
      "profess": 2417,
      "coin": 2418,
      "season": 2419,
      "woman": 2420,
      "consisting": 2421,
      "answered": 2422,
      "distribution": 2423,
      "partnership": 2424,
      "trapez": 2425,
      "bar": 2426,
      "fac": 2427,
      "hard": 2428,
      "hence": 2429,
      "won": 2430,
      "##ause": 2431,
      "true": 2432,
      "##amps": 2433,
      "real": 2434,
      "report": 2435,
      "march": 2436,
      "married": 2437,
      "like": 2438,
      "because": 2439,
      "phot": 2440,
      "##velop": 2441,
      "##ife": 2442,
      "uniform": 2443,
      "contrib": 2444,
      "wait": 2445,
      "diminished": 2446,
      "77": 2447,
      "ded": 2448,
      "late": 2449,
      "pm": 2450,
      "sen": 2451,
      "##rams": 2452,
      "##by": 2453,
      "##ders": 2454,
      "##igible": 2455,
      "soap": 2456,
      "offic": 2457,
      "##tra": 2458,
      "basic": 2459,
      "##ucted": 2460,
      "ounce": 2461,
      "edges": 2462,
      "engineer": 2463,
      "help": 2464,
      "applicants": 2465,
      "92": 2466,
      "germ": 2467,
      "mond": 2468,
      "sin": 2469,
      "wife": 2470,
      "##ro": 2471,
      "##dy": 2472,
      "##aluate": 2473,
      "##itte": 2474,
      "##icy": 2475,
      "##icks": 2476,
      "##ident": 2477,
      "##cept": 2478,
      "contract": 2479,
      "chr": 2480,
      "char": 2481,
      "drink": 2482,
      "constr": 2483,
      "highest": 2484,
      "committe": 2485,
      "parallelog": 2486,
      "1996": 2487,
      "evaluate": 2488,
      "manufacturing": 2489,
      "##cribed": 2490,
      "error": 2491,
      "maintain": 2492,
      "rahul": 2493,
      "monday": 2494,
      "bir": 2495,
      "num": 2496,
      "rd": 2497,
      "tap": 2498,
      "##ri": 2499,
      "##zen": 2500,
      "##isa": 2501,
      "numbered": 2502,
      "450": 2503,
      "volumes": 2504,
      "event": 2505,
      "under": 2506,
      "camp": 2507,
      "trader": 2508,
      "principal": 2509,
      "caught": 2510,
      "##yg": 2511,
      "##ont": 2512,
      "##iday": 2513,
      "stamps": 2514,
      "12000": 2515,
      "che": 2516,
      "arun": 2517,
      "##ddy": 2518,
      "flour": 2519,
      "##ption": 2520,
      "able": 2521,
      "320": 2522,
      "match": 2523,
      "480": 2524,
      "moves": 2525,
      "throw": 2526,
      "preferred": 2527,
      "bottle": 2528,
      "travelled": 2529,
      "printer": 2530,
      "consumption": 2531,
      "continues": 2532,
      "hotel": 2533,
      "sector": 2534,
      "bicy": 2535,
      "fall": 2536,
      "kn": 2537,
      "mtr": 2538,
      "overs": 2539,
      "sep": 2540,
      "inning": 2541,
      "##icient": 2542,
      "asked": 2543,
      "reserv": 2544,
      "assume": 2545,
      "bike": 2546,
      "north": 2547,
      "avg": 2548,
      "determ": 2549,
      "balance": 2550,
      "eggs": 2551,
      "separ": 2552,
      "ahead": 2553,
      "bound": 2554,
      "cou": 2555,
      "lad": 2556,
      "soc": 2557,
      "##hi": 2558,
      "##30": 2559,
      "##inct": 2560,
      "##ots": 2561,
      "leaving": 2562,
      "extra": 2563,
      "equival": 2564,
      "distinct": 2565,
      "##ocr": 2566,
      "gains": 2567,
      "inside": 2568,
      "import": 2569,
      "degree": 2570,
      "condition": 2571,
      "football": 2572,
      "bucket": 2573,
      "kilograms": 2574,
      "##ombus": 2575,
      "rhombus": 2576,
      "equivalent": 2577,
      "gave": 2578,
      "hor": 2579,
      "power": 2580,
      "well": 2581,
      "##ties": 2582,
      "##cy": 2583,
      "stere": 2584,
      "##istina": 2585,
      "salaries": 2586,
      "solve": 2587,
      "investments": 2588,
      "scores": 2589,
      "750": 2590,
      "seed": 2591,
      "tomat": 2592,
      "offered": 2593,
      "steve": 2594,
      "parallelogram": 2595,
      "fig": 2596,
      "##bo": 2597,
      "short": 2598,
      "allow": 2599,
      "distric": 2600,
      "cup": 2601,
      "classes": 2602,
      "production": 2603,
      "block": 2604,
      "acid": 2605,
      "computers": 2606,
      "region": 2607,
      "replac": 2608,
      "reading": 2609,
      "collect": 2610,
      "electron": 2611,
      "provisions": 2612,
      "wholesale": 2613,
      "democr": 2614,
      "officers": 2615,
      "94": 2616,
      "billion": 2617,
      "eld": 2618,
      "sat": 2619,
      "##to": 2620,
      "##hop": 2621,
      "##36": 2622,
      "revers": 2623,
      "distances": 2624,
      "flat": 2625,
      "eligible": 2626,
      "assist": 2627,
      "types": 2628,
      "planted": 2629,
      "harry": 2630,
      "july": 2631,
      "street": 2632,
      "faculty": 2633,
      "bat": 2634,
      "bre": 2635,
      "dav": 2636,
      "most": 2637,
      "rid": 2638,
      "satur": 2639,
      "##ries": 2640,
      "##oo": 2641,
      "##erical": 2642,
      "staff": 2643,
      "chick": 2644,
      "weights": 2645,
      "reduce": 2646,
      "example": 2647,
      "depth": 2648,
      "##igned": 2649,
      "returned": 2650,
      "operation": 2651,
      "stroke": 2652,
      "sitting": 2653,
      "wrongly": 2654,
      "fixed": 2655,
      "palindr": 2656,
      "david": 2657,
      "05": 2658,
      "83": 2659,
      "catch": 2660,
      "jose": 2661,
      "lot": 2662,
      "leg": 2663,
      "nd": 2664,
      "none": 2665,
      "veg": 2666,
      "##ss": 2667,
      "whom": 2668,
      "##eck": 2669,
      "##iving": 2670,
      "##adr": 2671,
      "leaps": 2672,
      "hrs": 2673,
      "cla": 2674,
      "quadr": 2675,
      "190": 2676,
      "##iew": 2677,
      "raise": 2678,
      "trucks": 2679,
      "coordinates": 2680,
      "cases": 2681,
      "police": 2682,
      "expression": 2683,
      "june": 2684,
      "glass": 2685,
      "initially": 2686,
      "deviation": 2687,
      "railway": 2688,
      "variet": 2689,
      "trapezium": 2690,
      "committee": 2691,
      "birth": 2692,
      "favor": 2693,
      "gear": 2694,
      "mo": 2695,
      "tv": 2696,
      "wage": 2697,
      "##iors": 2698,
      "##ming": 2699,
      "##cm": 2700,
      "##cf": 2701,
      "##its": 2702,
      "beats": 2703,
      "dozen": 2704,
      "clos": 2705,
      "mixing": 2706,
      "purchases": 2707,
      "170": 2708,
      "record": 2709,
      "supp": 2710,
      "##icians": 2711,
      "jogger": 2712,
      "windows": 2713,
      "democrats": 2714,
      "lcm": 2715,
      "males": 2716,
      "mike": 2717,
      "rocks": 2718,
      "##dle": 2719,
      "##ug": 2720,
      "##chn": 2721,
      "##elly": 2722,
      "within": 2723,
      "##oph": 2724,
      "itself": 2725,
      "grass": 2726,
      "deer": 2727,
      "brad": 2728,
      "broad": 2729,
      "directly": 2730,
      "##respond": 2731,
      "voters": 2732,
      "correspond": 2733,
      "females": 2734,
      "teachers": 2735,
      "deepak": 2736,
      "geese": 2737,
      "deposited": 2738,
      "denom": 2739,
      "vertic": 2740,
      "axis": 2741,
      "evaporated": 2742,
      "graph": 2743,
      "##covered": 2744,
      "elder": 2745,
      "79": 2746,
      "hect": 2747,
      "##cer": 2748,
      "bond": 2749,
      "128": 2750,
      "places": 2751,
      "positions": 2752,
      "deb": 2753,
      "techn": 2754,
      "division": 2755,
      "radio": 2756,
      "corn": 2757,
      "measures": 2758,
      "just": 2759,
      "multiply": 2760,
      "youngest": 2761,
      "copies": 2762,
      "visitors": 2763,
      "keep": 2764,
      "interval": 2765,
      "occurs": 2766,
      "attem": 2767,
      "hy": 2768,
      "hist": 2769,
      "jim": 2770,
      "mel": 2771,
      "##lic": 2772,
      "##ya": 2773,
      "##ny": 2774,
      "##35": 2775,
      "inlet": 2776,
      "##alth": 2777,
      "tou": 2778,
      "toss": 2779,
      "stat": 2780,
      "##ament": 2781,
      "kms": 2782,
      "ash": 2783,
      "position": 2784,
      "note": 2785,
      "abc": 2786,
      "220": 2787,
      "draw": 2788,
      "baseball": 2789,
      "marble": 2790,
      "##ublic": 2791,
      "surveyed": 2792,
      "copper": 2793,
      "calls": 2794,
      "gradu": 2795,
      "bulbs": 2796,
      "attempt": 2797,
      "cd": 2798,
      "cur": 2799,
      "hall": 2800,
      "hik": 2801,
      "mill": 2802,
      "save": 2803,
      "tues": 2804,
      "##ael": 2805,
      "##side": 2806,
      "##gan": 2807,
      "##of": 2808,
      "##oir": 2809,
      "##jay": 2810,
      "##alties": 2811,
      "pres": 2812,
      "##ider": 2813,
      "102": 2814,
      "##aded": 2815,
      "15000": 2816,
      "summ": 2817,
      "expected": 2818,
      "metal": 2819,
      "##ipped": 2820,
      "112": 2821,
      "paul": 2822,
      "135": 2823,
      "covering": 2824,
      "plays": 2825,
      "painting": 2826,
      "##rah": 2827,
      "subs": 2828,
      "become": 2829,
      "rounds": 2830,
      "dollar": 2831,
      "program": 2832,
      "pizza": 2833,
      "appeared": 2834,
      "turned": 2835,
      "subjects": 2836,
      "films": 2837,
      "michael": 2838,
      "royalties": 2839,
      "reservoir": 2840,
      "replacement": 2841,
      "hectares": 2842,
      "tuesday": 2843,
      "ferry": 2844,
      "lind": 2845,
      "lower": 2846,
      "tall": 2847,
      "ticket": 2848,
      "##az": 2849,
      "##rass": 2850,
      "##fr": 2851,
      "##ecks": 2852,
      "##osp": 2853,
      "howrah": 2854,
      "stocks": 2855,
      "##ires": 2856,
      "##vert": 2857,
      "hourly": 2858,
      "word": 2859,
      "##egrass": 2860,
      "solutions": 2861,
      "notes": 2862,
      "scale": 2863,
      "earl": 2864,
      "2007": 2865,
      "marker": 2866,
      "evenly": 2867,
      "420": 2868,
      "resultant": 2869,
      "##hold": 2870,
      "began": 2871,
      "patna": 2872,
      "household": 2873,
      "workshop": 2874,
      "born": 2875,
      "roads": 2876,
      "shirt": 2877,
      "delux": 2878,
      "signal": 2879,
      "since": 2880,
      "horse": 2881,
      "variety": 2882,
      "deluxe": 2883,
      "fair": 2884,
      "faces": 2885,
      "lun": 2886,
      "lake": 2887,
      "might": 2888,
      "sib": 2889,
      "vi": 2890,
      "wed": 2891,
      "##ll": 2892,
      "##nes": 2893,
      "##gr": 2894,
      "##16": 2895,
      "##12": 2896,
      "##oe": 2897,
      "##well": 2898,
      "##99": 2899,
      "##omet": 2900,
      "stor": 2901,
      "bears": 2902,
      "reject": 2903,
      "##aks": 2904,
      "alb": 2905,
      "##ury": 2906,
      "126": 2907,
      "##phone": 2908,
      "2500": 2909,
      "##ella": 2910,
      "equilateral": 2911,
      "proble": 2912,
      "brown": 2913,
      "brought": 2914,
      "butter": 2915,
      "object": 2916,
      "taxi": 2917,
      "colors": 2918,
      "reached": 2919,
      "rental": 2920,
      "chemical": 2921,
      "quantities": 2922,
      "swims": 2923,
      "crew": 2924,
      "maxwell": 2925,
      "screen": 2926,
      "basketball": 2927,
      "garage": 2928,
      "figure": 2929,
      "sibling": 2930,
      "bou": 2931,
      "east": 2932,
      "fre": 2933,
      "hare": 2934,
      "pace": 2935,
      "pink": 2936,
      "tip": 2937,
      "wickets": 2938,
      "##rs": 2939,
      "##iya": 2940,
      "##15": 2941,
      "##venth": 2942,
      "##34": 2943,
      "##ery": 2944,
      "tow": 2945,
      "##iced": 2946,
      "forest": 2947,
      "##amm": 2948,
      "repe": 2949,
      "##avi": 2950,
      "front": 2951,
      "fine": 2952,
      "compet": 2953,
      "compens": 2954,
      "165": 2955,
      "mixes": 2956,
      "##ails": 2957,
      "flower": 2958,
      "650": 2959,
      "buying": 2960,
      "bags": 2961,
      "fund": 2962,
      "recip": 2963,
      "case": 2964,
      "returns": 2965,
      "continu": 2966,
      "winner": 2967,
      "sixth": 2968,
      "middle": 2969,
      "bowl": 2970,
      "fetched": 2971,
      "allowance": 2972,
      "earlier": 2973,
      "lunch": 2974,
      "compensation": 2975,
      "ben": 2976,
      "fiction": 2977,
      "kind": 2978,
      "neg": 2979,
      "sil": 2980,
      "ut": 2981,
      "##ress": 2982,
      "##75": 2983,
      "##ones": 2984,
      "toys": 2985,
      "##ison": 2986,
      "shows": 2987,
      "shift": 2988,
      "cone": 2989,
      "respond": 2990,
      "suff": 2991,
      "seller": 2992,
      "soft": 2993,
      "december": 2994,
      "seventh": 2995,
      "##urred": 2996,
      "##ording": 2997,
      "1993": 2998,
      "packages": 2999,
      "parking": 3000,
      "proportional": 3001,
      "according": 3002,
      "buckets": 3003,
      "association": 3004,
      "dealer": 3005,
      "experim": 3006,
      "corresponding": 3007,
      "silver": 3008,
      "lies": 3009,
      "lux": 3010,
      "nov": 3011,
      "page": 3012,
      "pony": 3013,
      "sister": 3014,
      "##back": 3015,
      "##ica": 3016,
      "##avers": 3017,
      "##ula": 3018,
      "averages": 3019,
      "allowed": 3020,
      "closed": 3021,
      "##aged": 3022,
      "annie": 3023,
      "acres": 3024,
      "salesman": 3025,
      "formula": 3026,
      "tests": 3027,
      "inscribed": 3028,
      "arrives": 3029,
      "swimming": 3030,
      "passenger": 3031,
      "junior": 3032,
      "banker": 3033,
      "robert": 3034,
      "carpet": 3035,
      "district": 3036,
      "tossed": 3037,
      "luxury": 3038,
      "bird": 3039,
      "furn": 3040,
      "hap": 3041,
      "hcf": 3042,
      "sn": 3043,
      "tar": 3044,
      "tile": 3045,
      "tips": 3046,
      "##eit": 3047,
      "##cel": 3048,
      "isab": 3049,
      "tourn": 3050,
      "kmh": 3051,
      "alread": 3052,
      "##otes": 3053,
      "trained": 3054,
      "organ": 3055,
      "composed": 3056,
      "1400": 3057,
      "paisa": 3058,
      "bricks": 3059,
      "scoo": 3060,
      "outside": 3061,
      "move": 3062,
      "begin": 3063,
      "listed": 3064,
      "impress": 3065,
      "letter": 3066,
      "visited": 3067,
      "expressed": 3068,
      "sections": 3069,
      "denotes": 3070,
      "repair": 3071,
      "effect": 3072,
      "##obile": 3073,
      "##medi": 3074,
      "climb": 3075,
      "catches": 3076,
      "estim": 3077,
      "legs": 3078,
      "vertices": 3079,
      "furniture": 3080,
      "happ": 3081,
      "isabella": 3082,
      "tournament": 3083,
      "already": 3084,
      "scooter": 3085,
      "din": 3086,
      "jac": 3087,
      "lay": 3088,
      "pic": 3089,
      "rise": 3090,
      "tenth": 3091,
      "vac": 3092,
      "want": 3093,
      "wins": 3094,
      "##ted": 3095,
      "##lor": 3096,
      "##roc": 3097,
      "##con": 3098,
      "##ased": 3099,
      "##icirc": 3100,
      "altern": 3101,
      "convert": 3102,
      "##ountain": 3103,
      "thereby": 3104,
      "##sequ": 3105,
      "136": 3106,
      "buff": 3107,
      "space": 3108,
      "ends": 3109,
      "paying": 3110,
      "taxes": 3111,
      "retire": 3112,
      "slips": 3113,
      "clothes": 3114,
      "clothing": 3115,
      "package": 3116,
      "processing": 3117,
      "majors": 3118,
      "associates": 3119,
      "semicirc": 3120,
      "soda": 3121,
      "bicycle": 3122,
      "soccer": 3123,
      "wednes": 3124,
      "storage": 3125,
      "reciproc": 3126,
      "wednesday": 3127,
      "duc": 3128,
      "daugh": 3129,
      "free": 3130,
      "map": 3131,
      "mother": 3132,
      "ravi": 3133,
      "zero": 3134,
      "##sc": 3135,
      "##ood": 3136,
      "##po": 3137,
      "##erator": 3138,
      "##ork": 3139,
      "##than": 3140,
      "friday": 3141,
      "health": 3142,
      "intercept": 3143,
      "dress": 3144,
      "swe": 3145,
      "inspect": 3146,
      "wheat": 3147,
      "immedi": 3148,
      "puts": 3149,
      "polit": 3150,
      "angel": 3151,
      "excluded": 3152,
      "saturday": 3153,
      "immediately": 3154,
      "06": 3155,
      "ethan": 3156,
      "hon": 3157,
      "host": 3158,
      "hosp": 3159,
      "mater": 3160,
      "pot": 3161,
      "ris": 3162,
      "tens": 3163,
      "##hind": 3164,
      "##por": 3165,
      "##ata": 3166,
      "toll": 3167,
      "behind": 3168,
      "come": 3169,
      "withd": 3170,
      "##unct": 3171,
      "web": 3172,
      "lem": 3173,
      "compon": 3174,
      "intern": 3175,
      "cristina": 3176,
      "1800": 3177,
      "fills": 3178,
      "bring": 3179,
      "outlet": 3180,
      "175": 3181,
      "270": 3182,
      "whereas": 3183,
      "transport": 3184,
      "chocolates": 3185,
      "vessels": 3186,
      "660": 3187,
      "operating": 3188,
      "observation": 3189,
      "enroll": 3190,
      "raisins": 3191,
      "grocery": 3192,
      "nicky": 3193,
      "senior": 3194,
      "hiker": 3195,
      "daughter": 3196,
      "hospital": 3197,
      "material": 3198,
      "9000": 3199,
      "bur": 3200,
      "cell": 3201,
      "gm": 3202,
      "gift": 3203,
      "##73": 3204,
      "##ule": 3205,
      "##inc": 3206,
      "##ilt": 3207,
      "##ised": 3208,
      "##earch": 3209,
      "chance": 3210,
      "mins": 3211,
      "amounted": 3212,
      "1600": 3213,
      "few": 3214,
      "quart": 3215,
      "132": 3216,
      "built": 3217,
      "passing": 3218,
      "enables": 3219,
      "capit": 3220,
      "sched": 3221,
      "assemb": 3222,
      "540": 3223,
      "##ucting": 3224,
      "330": 3225,
      "adult": 3226,
      "loom": 3227,
      "airport": 3228,
      "laid": 3229,
      "clear": 3230,
      "cleared": 3231,
      "efficient": 3232,
      "maxine": 3233,
      "picked": 3234,
      "oxen": 3235,
      "telephone": 3236,
      "photos": 3237,
      "##room": 3238,
      "linda": 3239,
      "repeated": 3240,
      "97": 3241,
      "aut": 3242,
      "cake": 3243,
      "funct": 3244,
      "hats": 3245,
      "jelly": 3246,
      "miss": 3247,
      "mountain": 3248,
      "sa": 3249,
      "west": 3250,
      "yrs": 3251,
      "##rol": 3252,
      "##ne": 3253,
      "##cles": 3254,
      "##pers": 3255,
      "##isf": 3256,
      "shakes": 3257,
      "mus": 3258,
      "chose": 3259,
      "##ague": 3260,
      "sheet": 3261,
      "##oker": 3262,
      "unch": 3263,
      "pean": 3264,
      "consider": 3265,
      "centimeter": 3266,
      "gained": 3267,
      "formulation": 3268,
      "contest": 3269,
      "posted": 3270,
      "arranged": 3271,
      "finally": 3272,
      "shipment": 3273,
      "progress": 3274,
      "petrol": 3275,
      "choice": 3276,
      "rele": 3277,
      "concentration": 3278,
      "satisf": 3279,
      "assistant": 3280,
      "debt": 3281,
      "history": 3282,
      "boun": 3283,
      "7000": 3284,
      "bin": 3285,
      "cow": 3286,
      "cart": 3287,
      "eddy": 3288,
      "econ": 3289,
      "fle": 3290,
      "fly": 3291,
      "gen": 3292,
      "ice": 3293,
      "lives": 3294,
      "mol": 3295,
      "pen": 3296,
      "ry": 3297,
      "##55": 3298,
      "##62": 3299,
      "##key": 3300,
      "##heit": 3301,
      "##the": 3302,
      "##ley": 3303,
      "##olts": 3304,
      "reun": 3305,
      "##ached": 3306,
      "heav": 3307,
      "chlor": 3308,
      "lends": 3309,
      "remainders": 3310,
      "runner": 3311,
      "##aper": 3312,
      "crate": 3313,
      "partly": 3314,
      "2009": 3315,
      "about": 3316,
      "salespers": 3317,
      "225": 3318,
      "colour": 3319,
      "corpor": 3320,
      "requires": 3321,
      "230": 3322,
      "raj": 3323,
      "850": 3324,
      "transferred": 3325,
      "paperback": 3326,
      "actually": 3327,
      "pumps": 3328,
      "##itted": 3329,
      "syr": 3330,
      "delhi": 3331,
      "spending": 3332,
      "undert": 3333,
      "jacket": 3334,
      "individually": 3335,
      "motorists": 3336,
      "motorcy": 3337,
      "code": 3338,
      "semi": 3339,
      "normally": 3340,
      "admission": 3341,
      "oxyg": 3342,
      "lady": 3343,
      "subscrib": 3344,
      "benef": 3345,
      "target": 3346,
      "ethanol": 3347,
      "enrollment": 3348,
      "econom": 3349,
      "ryegrass": 3350,
      "corporation": 3351,
      "oxygen": 3352,
      "airl": 3353,
      "cere": 3354,
      "colum": 3355,
      "dough": 3356,
      "fell": 3357,
      "hous": 3358,
      "hired": 3359,
      "lang": 3360,
      "lie": 3361,
      "mice": 3362,
      "mass": 3363,
      "pq": 3364,
      "rich": 3365,
      "saves": 3366,
      "tre": 3367,
      "tenn": 3368,
      "wood": 3369,
      "##ril": 3370,
      "##44": 3371,
      "##bl": 3372,
      "##inks": 3373,
      "##inated": 3374,
      "##osh": 3375,
      "trail": 3376,
      "##plom": 3377,
      "finds": 3378,
      "diplom": 3379,
      "carb": 3380,
      "april": 3381,
      "rod": 3382,
      "envelop": 3383,
      "flight": 3384,
      "movies": 3385,
      "results": 3386,
      "require": 3387,
      "subsequ": 3388,
      "begins": 3389,
      "stopped": 3390,
      "walls": 3391,
      "papers": 3392,
      "##ified": 3393,
      "vend": 3394,
      "create": 3395,
      "mrs": 3396,
      "raised": 3397,
      "stereos": 3398,
      "riding": 3399,
      "rejected": 3400,
      "negative": 3401,
      "experiment": 3402,
      "semicircle": 3403,
      "ducks": 3404,
      "hostel": 3405,
      "unchanged": 3406,
      "column": 3407,
      "tennis": 3408,
      "care": 3409,
      "data": 3410,
      "hill": 3411,
      "oth": 3412,
      "tire": 3413,
      "##ym": 3414,
      "##ipe": 3415,
      "##we": 3416,
      "##ally": 3417,
      "##ils": 3418,
      "##icit": 3419,
      "beat": 3420,
      "beans": 3421,
      "show": 3422,
      "conference": 3423,
      "secured": 3424,
      "sums": 3425,
      "monkey": 3426,
      "solid": 3427,
      "firm": 3428,
      "partner": 3429,
      "broker": 3430,
      "aged": 3431,
      "flavor": 3432,
      "groups": 3433,
      "slab": 3434,
      "rooms": 3435,
      "instr": 3436,
      "recipe": 3437,
      "charged": 3438,
      "rug": 3439,
      "destinations": 3440,
      "element": 3441,
      "cycling": 3442,
      "kept": 3443,
      "quarterly": 3444,
      "lawn": 3445,
      "model": 3446,
      "handsh": 3447,
      "known": 3448,
      "tomatoes": 3449,
      "attempts": 3450,
      "competition": 3451,
      "lemon": 3452,
      "capitals": 3453,
      "langu": 3454,
      "others": 3455,
      "02": 3456,
      "73": 3457,
      "fah": 3458,
      "lose": 3459,
      "mag": 3460,
      "pave": 3461,
      "roses": 3462,
      "till": 3463,
      "##non": 3464,
      "##21": 3465,
      "##vis": 3466,
      "thie": 3467,
      "##annon": 3468,
      "tower": 3469,
      "##ilar": 3470,
      "##ute": 3471,
      "reap": 3472,
      "shannon": 3473,
      "##anda": 3474,
      "lee": 3475,
      "##ush": 3476,
      "compared": 3477,
      "resp": 3478,
      "therefore": 3479,
      "contained": 3480,
      "displ": 3481,
      "similar": 3482,
      "candies": 3483,
      "purple": 3484,
      "abh": 3485,
      "offers": 3486,
      "taxable": 3487,
      "##renheit": 3488,
      "prep": 3489,
      "stationary": 3490,
      "owns": 3491,
      "maths": 3492,
      "adv": 3493,
      "##ify": 3494,
      "poles": 3495,
      "copy": 3496,
      "typical": 3497,
      "intervals": 3498,
      "interview": 3499,
      "offering": 3500,
      "attended": 3501,
      "morning": 3502,
      "televis": 3503,
      "installment": 3504,
      "chickens": 3505,
      "favorable": 3506,
      "denomination": 3507,
      "melted": 3508,
      "albert": 3509,
      "utility": 3510,
      "impression": 3511,
      "jacob": 3512,
      "honey": 3513,
      "assembly": 3514,
      "function": 3515,
      "chloride": 3516,
      "economy": 3517,
      "cereal": 3518,
      "fahrenheit": 3519,
      "08": 3520,
      "04": 3521,
      "kim": 3522,
      "lap": 3523,
      "mort": 3524,
      "rot": 3525,
      "sou": 3526,
      "soph": 3527,
      "tab": 3528,
      "tables": 3529,
      "zinc": 3530,
      "##ned": 3531,
      "##nect": 3532,
      "##ooth": 3533,
      "too": 3534,
      "##orrect": 3535,
      "##ille": 3536,
      "press": 3537,
      "ones": 3538,
      "##ests": 3539,
      "104": 3540,
      "incorrect": 3541,
      "changed": 3542,
      "coach": 3543,
      "grand": 3544,
      "grape": 3545,
      "meal": 3546,
      "meets": 3547,
      "develop": 3548,
      "decl": 3549,
      "decides": 3550,
      "adding": 3551,
      "earth": 3552,
      "weeks": 3553,
      "flag": 3554,
      "216": 3555,
      "6500": 3556,
      "triangles": 3557,
      "550": 3558,
      "260": 3559,
      "families": 3560,
      "regularly": 3561,
      "observations": 3562,
      "republic": 3563,
      "sports": 3564,
      "entered": 3565,
      "pizzas": 3566,
      "sodium": 3567,
      "following": 3568,
      "reported": 3569,
      "determined": 3570,
      "imported": 3571,
      "technicians": 3572,
      "##ometry": 3573,
      "towels": 3574,
      "autom": 3575,
      "envelopes": 3576,
      "handshakes": 3577,
      "south": 3578,
      "01": 3579,
      "91": 3580,
      "award": 3581,
      "bull": 3582,
      "cult": 3583,
      "hens": 3584,
      "ken": 3585,
      "lb": 3586,
      "lat": 3587,
      "mic": 3588,
      "taps": 3589,
      "wish": 3590,
      "wicket": 3591,
      "##nic": 3592,
      "##gage": 3593,
      "##beans": 3594,
      "reb": 3595,
      "world": 3596,
      "aster": 3597,
      "takers": 3598,
      "plough": 3599,
      "##onds": 3600,
      "chess": 3601,
      "checks": 3602,
      "league": 3603,
      "##actions": 3604,
      "salad": 3605,
      "coins": 3606,
      "driven": 3607,
      "1100": 3608,
      "45000": 3609,
      "20000": 3610,
      "markup": 3611,
      "colony": 3612,
      "720": 3613,
      "indust": 3614,
      "emptied": 3615,
      "patch": 3616,
      "patio": 3617,
      "1997": 3618,
      "phone": 3619,
      "560": 3620,
      "##ific": 3621,
      "transaction": 3622,
      "conducted": 3623,
      "fenced": 3624,
      "grades": 3625,
      "drains": 3626,
      "yields": 3627,
      "overtime": 3628,
      "majority": 3629,
      "separately": 3630,
      "boundary": 3631,
      "claire": 3632,
      "president": 3633,
      "picnic": 3634,
      "bounce": 3635,
      "heavy": 3636,
      "vendor": 3637,
      "thief": 3638,
      "television": 3639,
      "mortgage": 3640,
      "bc": 3641,
      "ca": 3642,
      "der": 3643,
      "dur": 3644,
      "jerry": 3645,
      "live": 3646,
      "mig": 3647,
      "meg": 3648,
      "ny": 3649,
      "paved": 3650,
      "##teen": 3651,
      "##70": 3652,
      "##98": 3653,
      "##fl": 3654,
      "##eration": 3655,
      "##onest": 3656,
      "##alse": 3657,
      "rear": 3658,
      "##sters": 3659,
      "##ulated": 3660,
      "conc": 3661,
      "doing": 3662,
      "dies": 3663,
      "reminder": 3664,
      "##ocated": 3665,
      "149": 3666,
      "investor": 3667,
      "4500": 3668,
      "##anya": 3669,
      "2008": 3670,
      "playing": 3671,
      "selects": 3672,
      "stored": 3673,
      "decreasing": 3674,
      "sea": 3675,
      "50000": 3676,
      "1991": 3677,
      "events": 3678,
      "load": 3679,
      "##atched": 3680,
      "sample": 3681,
      "holds": 3682,
      "loaned": 3683,
      "rainy": 3684,
      "bedroom": 3685,
      "dishonest": 3686,
      "contribut": 3687,
      "contribution": 3688,
      "maintained": 3689,
      "quadrilateral": 3690,
      "retirement": 3691,
      "##point": 3692,
      "angelo": 3693,
      "withdra": 3694,
      "jellybeans": 3695,
      "syrup": 3696,
      "slabs": 3697,
      "awarded": 3698,
      "bad": 3699,
      "hamm": 3700,
      "kay": 3701,
      "kill": 3702,
      "mad": 3703,
      "mats": 3704,
      "mobile": 3705,
      "nam": 3706,
      "pup": 3707,
      "sar": 3708,
      "sare": 3709,
      "ten": 3710,
      "zer": 3711,
      "##equ": 3712,
      "##roll": 3713,
      "##ness": 3714,
      "##ba": 3715,
      "##ban": 3716,
      "##ware": 3717,
      "##for": 3718,
      "##ful": 3719,
      "##alid": 3720,
      "##itions": 3721,
      "##ases": 3722,
      "##ict": 3723,
      "ant": 3724,
      "ration": 3725,
      "prop": 3726,
      "##cends": 3727,
      "alto": 3728,
      "##plane": 3729,
      "speeding": 3730,
      "incurred": 3731,
      "weavers": 3732,
      "##eena": 3733,
      "art": 3734,
      "drum": 3735,
      "111": 3736,
      "invalid": 3737,
      "sheep": 3738,
      "cuboid": 3739,
      "early": 3740,
      "opt": 3741,
      "goat": 3742,
      "payroll": 3743,
      "enough": 3744,
      "discounts": 3745,
      "##ency": 3746,
      "buyer": 3747,
      "jug": 3748,
      "manufacture": 3749,
      "landing": 3750,
      "cylindr": 3751,
      "planned": 3752,
      "suppl": 3753,
      "keeper": 3754,
      "printing": 3755,
      "accom": 3756,
      "concentr": 3757,
      "sundays": 3758,
      "experience": 3759,
      "baked": 3760,
      "reversed": 3761,
      "kinds": 3762,
      "climbing": 3763,
      "carbon": 3764,
      "lemonade": 3765,
      "derived": 3766,
      "##force": 3767,
      "altogether": 3768,
      "cylindrical": 3769,
      "71": 3770,
      "880": 3771,
      "cab": 3772,
      "gumb": 3773,
      "ii": 3774,
      "jake": 3775,
      "nec": 3776,
      "pig": 3777,
      "poll": 3778,
      "tur": 3779,
      "tails": 3780,
      "wear": 3781,
      "wren": 3782,
      "##la": 3783,
      "##ross": 3784,
      "##gers": 3785,
      "##27": 3786,
      "##wers": 3787,
      "thurs": 3788,
      "isos": 3789,
      "##arm": 3790,
      "perform": 3791,
      "perpend": 3792,
      "##icular": 3793,
      "trous": 3794,
      "proper": 3795,
      "shelf": 3796,
      "alter": 3797,
      "alway": 3798,
      "121": 3799,
      "##ored": 3800,
      "plum": 3801,
      "plates": 3802,
      "leap": 3803,
      "mini": 3804,
      "completion": 3805,
      "134": 3806,
      "divisors": 3807,
      "smooth": 3808,
      "fift": 3809,
      "across": 3810,
      "schem": 3811,
      "thrown": 3812,
      "##ize": 3813,
      "##ized": 3814,
      "answers": 3815,
      "write": 3816,
      "accounts": 3817,
      "contents": 3818,
      "340": 3819,
      "apartments": 3820,
      "432": 3821,
      "orangeade": 3822,
      "juniors": 3823,
      "uniqu": 3824,
      "freshmen": 3825,
      "boundaries": 3826,
      "electronic": 3827,
      "veget": 3828,
      "birthday": 3829,
      "statue": 3830,
      "curved": 3831,
      "summit": 3832,
      "siblings": 3833,
      "##celes": 3834,
      "alternate": 3835,
      "buffal": 3836,
      "brokerage": 3837,
      "instrum": 3838,
      "display": 3839,
      "republicans": 3840,
      "gumball": 3841,
      "necess": 3842,
      "thursday": 3843,
      "isosceles": 3844,
      "perpendicular": 3845,
      "always": 3846,
      "bio": 3847,
      "bolts": 3848,
      "fed": 3849,
      "fit": 3850,
      "fans": 3851,
      "false": 3852,
      "hu": 3853,
      "hen": 3854,
      "hear": 3855,
      "homes": 3856,
      "hatched": 3857,
      "mac": 3858,
      "maint": 3859,
      "ps": 3860,
      "ren": 3861,
      "##ees": 3862,
      "##lap": 3863,
      "##ses": 3864,
      "##iece": 3865,
      "##gin": 3866,
      "##graph": 3867,
      "##ky": 3868,
      "##kn": 3869,
      "##bled": 3870,
      "##cr": 3871,
      "##vin": 3872,
      "##fe": 3873,
      "##fiction": 3874,
      "##erc": 3875,
      "##rew": 3876,
      "##enance": 3877,
      "##orter": 3878,
      "##idents": 3879,
      "cannel": 3880,
      "connect": 3881,
      "die": 3882,
      "executive": 3883,
      "orch": 3884,
      "runners": 3885,
      "betty": 3886,
      "clerical": 3887,
      "grow": 3888,
      "uncovered": 3889,
      "rope": 3890,
      "earning": 3891,
      "discovered": 3892,
      "spir": 3893,
      "goose": 3894,
      "goats": 3895,
      "3500": 3896,
      "payments": 3897,
      "flies": 3898,
      "overlap": 3899,
      "30000": 3900,
      "fox": 3901,
      "lik": 3902,
      "became": 3903,
      "handled": 3904,
      "survived": 3905,
      "9999": 3906,
      "reads": 3907,
      "460": 3908,
      "polyg": 3909,
      "transactions": 3910,
      "nonfiction": 3911,
      "consumed": 3912,
      "represented": 3913,
      "expensive": 3914,
      "sixes": 3915,
      "label": 3916,
      "called": 3917,
      "roots": 3918,
      "appear": 3919,
      "guests": 3920,
      "chairs": 3921,
      "sunil": 3922,
      "beds": 3923,
      "climbs": 3924,
      "switched": 3925,
      "seniors": 3926,
      "couples": 3927,
      "graduates": 3928,
      "households": 3929,
      "viol": 3930,
      "freddy": 3931,
      "birds": 3932,
      "dinner": 3933,
      "reciprocal": 3934,
      "politics": 3935,
      "webwe": 3936,
      "component": 3937,
      "progression": 3938,
      "salesperson": 3939,
      "trebled": 3940,
      "development": 3941,
      "asteroid": 3942,
      "sarees": 3943,
      "concentrate": 3944,
      "altered": 3945,
      "buffaloes": 3946,
      "biograph": 3947,
      "maintenance": 3948,
      "webweb": 3949,
      "09": 3950,
      "03": 3951,
      "93": 3952,
      "cc": 3953,
      "cit": 3954,
      "came": 3955,
      "cream": 3956,
      "hat": 3957,
      "rents": 3958,
      "sle": 3959,
      "sided": 3960,
      "vel": 3961,
      "##tures": 3962,
      "##ai": 3963,
      "##52": 3964,
      "##ging": 3965,
      "##ma": 3966,
      "##28": 3967,
      "##78": 3968,
      "##ber": 3969,
      "##jac": 3970,
      "##ves": 3971,
      "##anced": 3972,
      "tour": 3973,
      "##iters": 3974,
      "##ase": 3975,
      "##ily": 3976,
      "pris": 3977,
      "priced": 3978,
      "##ership": 3979,
      "bee": 3980,
      "shall": 3981,
      "wash": 3982,
      "127": 3983,
      "exerc": 3984,
      "research": 3985,
      "remained": 3986,
      "drinks": 3987,
      "unkn": 3988,
      "disc": 3989,
      "2005": 3990,
      "2003": 3991,
      "suresh": 3992,
      "throws": 3993,
      "##inders": 3994,
      "pattern": 3995,
      "journeymen": 3996,
      "640": 3997,
      "adjac": 3998,
      "except": 3999,
      "medical": 4000,
      "brands": 4001,
      "measured": 4002,
      "conditions": 4003,
      "alloys": 4004,
      "##ika": 4005,
      "kilogram": 4006,
      "dealership": 4007,
      "follows": 4008,
      "deducted": 4009,
      "engineering": 4010,
      "tomato": 4011,
      "electronics": 4012,
      "suppose": 4013,
      "problem": 4014,
      "molly": 4015,
      "airline": 4016,
      "duration": 4017,
      "diesel": 4018,
      "withdraws": 4019,
      "##crip": 4020,
      "polygon": 4021,
      "veloc": 4022,
      "exercise": 4023,
      "unknown": 4024,
      "adjacent": 4025,
      "07": 4026,
      "ble": 4027,
      "band": 4028,
      "eight": 4029,
      "kate": 4030,
      "mut": 4031,
      "pint": 4032,
      "sach": 4033,
      "##land": 4034,
      "##ients": 4035,
      "##48": 4036,
      "##ho": 4037,
      "##oon": 4038,
      "##90": 4039,
      "##32": 4040,
      "##atic": 4041,
      "##atures": 4042,
      "##anies": 4043,
      "##ences": 4044,
      "##itud": 4045,
      "prize": 4046,
      "##thing": 4047,
      "##ester": 4048,
      "##ules": 4049,
      "frog": 4050,
      "body": 4051,
      "coming": 4052,
      "##nts": 4053,
      "doct": 4054,
      "cara": 4055,
      "carol": 4056,
      "sally": 4057,
      "composit": 4058,
      "companies": 4059,
      "##ells": 4060,
      "##aby": 4061,
      "cert": 4062,
      "cms": 4063,
      "apiece": 4064,
      "mixtures": 4065,
      "grew": 4066,
      "145": 4067,
      "242": 4068,
      "1300": 4069,
      "employer": 4070,
      "##icky": 4071,
      "span": 4072,
      "outer": 4073,
      "encl": 4074,
      "halfway": 4075,
      "flow": 4076,
      "flowing": 4077,
      "flash": 4078,
      "purchasing": 4079,
      "sex": 4080,
      "##cope": 4081,
      "subst": 4082,
      "##clist": 4083,
      "liked": 4084,
      "520": 4085,
      "fifths": 4086,
      "pasture": 4087,
      "created": 4088,
      "driveway": 4089,
      "clean": 4090,
      "codes": 4091,
      "desk": 4092,
      "attached": 4093,
      "deviations": 4094,
      "admitted": 4095,
      "bulb": 4096,
      "bowling": 4097,
      "switches": 4098,
      "professors": 4099,
      "deducting": 4100,
      "contractor": 4101,
      "throwers": 4102,
      "determine": 4103,
      "separate": 4104,
      "stereo": 4105,
      "claim": 4106,
      "multiplying": 4107,
      "notebo": 4108,
      "responded": 4109,
      "organiz": 4110,
      "repairs": 4111,
      "vacation": 4112,
      "schedule": 4113,
      "doughn": 4114,
      "subsequently": 4115,
      "columns": 4116,
      "declared": 4117,
      "wishes": 4118,
      "fifteen": 4119,
      "sachin": 4120,
      "##itude": 4121,
      "510": 4122,
      "aug": 4123,
      "cred": 4124,
      "dos": 4125,
      "gym": 4126,
      "hind": 4127,
      "jord": 4128,
      "king": 4129,
      "lens": 4130,
      "pare": 4131,
      "sent": 4132,
      "seg": 4133,
      "van": 4134,
      "varies": 4135,
      "##titude": 4136,
      "##lets": 4137,
      "##ral": 4138,
      "##rog": 4139,
      "##drog": 4140,
      "##uth": 4141,
      "##init": 4142,
      "##ati": 4143,
      "##ndred": 4144,
      "##aron": 4145,
      "truth": 4146,
      "anth": 4147,
      "##igerator": 4148,
      "ref": 4149,
      "refr": 4150,
      "##str": 4151,
      "shorter": 4152,
      "##ceed": 4153,
      "totals": 4154,
      "weave": 4155,
      "chop": 4156,
      "changes": 4157,
      "allowing": 4158,
      "solicit": 4159,
      "interior": 4160,
      "138": 4161,
      "scul": 4162,
      "buses": 4163,
      "accept": 4164,
      "origin": 4165,
      "restore": 4166,
      "222": 4167,
      "eli": 4168,
      "##ograph": 4169,
      "movie": 4170,
      "impr": 4171,
      "servant": 4172,
      "arrive": 4173,
      "sym": 4174,
      "840": 4175,
      "deposits": 4176,
      "coding": 4177,
      "danny": 4178,
      "baking": 4179,
      "german": 4180,
      "construction": 4181,
      "couple": 4182,
      "reverse": 4183,
      "chicken": 4184,
      "policeman": 4185,
      "glasses": 4186,
      "hydrog": 4187,
      "continued": 4188,
      "sufficient": 4189,
      "rises": 4190,
      "said": 4191,
      "reunion": 4192,
      "flavoring": 4193,
      "advanced": 4194,
      "flags": 4195,
      "hundred": 4196,
      "prism": 4197,
      "velocity": 4198,
      "certific": 4199,
      "substance": 4200,
      "august": 4201,
      "dosage": 4202,
      "jordan": 4203,
      "##initely": 4204,
      "refrigerator": 4205,
      "hydrogen": 4206,
      "780": 4207,
      "dar": 4208,
      "dot": 4209,
      "dive": 4210,
      "files": 4211,
      "hol": 4212,
      "jars": 4213,
      "ker": 4214,
      "key": 4215,
      "laps": 4216,
      "mem": 4217,
      "nect": 4218,
      "pc": 4219,
      "rac": 4220,
      "rides": 4221,
      "spl": 4222,
      "sens": 4223,
      "socks": 4224,
      "teena": 4225,
      "vide": 4226,
      "yester": 4227,
      "##ris": 4228,
      "##rick": 4229,
      "##gent": 4230,
      "##my": 4231,
      "##mis": 4232,
      "##68": 4233,
      "##64": 4234,
      "##bor": 4235,
      "##ued": 4236,
      "##uity": 4237,
      "theater": 4238,
      "##inum": 4239,
      "##atuity": 4240,
      "perimeters": 4241,
      "bees": 4242,
      "beef": 4243,
      "##acy": 4244,
      "101": 4245,
      "##pled": 4246,
      "124": 4247,
      "204": 4248,
      "plate": 4249,
      "muff": 4250,
      "rememb": 4251,
      "mineral": 4252,
      "equip": 4253,
      "gratuity": 4254,
      "app": 4255,
      "drank": 4256,
      "115": 4257,
      "18000": 4258,
      "quiz": 4259,
      "brother": 4260,
      "roh": 4261,
      "upgr": 4262,
      "paych": 4263,
      "blast": 4264,
      "walkway": 4265,
      "kilos": 4266,
      "elvin": 4267,
      "radii": 4268,
      "assets": 4269,
      "324": 4270,
      "288": 4271,
      "slipped": 4272,
      "farther": 4273,
      "empties": 4274,
      "patrick": 4275,
      "1999": 4276,
      "someone": 4277,
      "inspected": 4278,
      "arrived": 4279,
      "courses": 4280,
      "geometry": 4281,
      "occup": 4282,
      "steel": 4283,
      "labor": 4284,
      "graduate": 4285,
      "restaurants": 4286,
      "spring": 4287,
      "choose": 4288,
      "detergent": 4289,
      "boarders": 4290,
      "fetch": 4291,
      "professes": 4292,
      "drawing": 4293,
      "graduating": 4294,
      "summer": 4295,
      "problems": 4296,
      "november": 4297,
      "layers": 4298,
      "musicians": 4299,
      "diplomats": 4300,
      "career": 4301,
      "hillary": 4302,
      "language": 4303,
      "smoothie": 4304,
      "necessary": 4305,
      "sleep": 4306,
      "credit": 4307,
      "eliot": 4308,
      "holiday": 4309,
      "memory": 4310,
      "nectar": 4311,
      "sensors": 4312,
      "yesterday": 4313,
      "muffin": 4314,
      "remembers": 4315,
      "upgraded": 4316,
      "bomb": 4317,
      "gh": 4318,
      "kar": 4319,
      "lan": 4320,
      "los": 4321,
      "nurs": 4322,
      "py": 4323,
      "rank": 4324,
      "sul": 4325,
      "##ton": 4326,
      "##iel": 4327,
      "##mers": 4328,
      "##61": 4329,
      "##ook": 4330,
      "##ca": 4331,
      "##work": 4332,
      "prim": 4333,
      "pract": 4334,
      "stay": 4335,
      "##olution": 4336,
      "rein": 4337,
      "shoe": 4338,
      "alice": 4339,
      "##uric": 4340,
      "hemis": 4341,
      "##allic": 4342,
      "lend": 4343,
      "execut": 4344,
      "##aren": 4345,
      "carr": 4346,
      "amar": 4347,
      "meth": 4348,
      "metallic": 4349,
      "arc": 4350,
      "arts": 4351,
      "personal": 4352,
      "qual": 4353,
      "##ually": 4354,
      "brick": 4355,
      "unf": 4356,
      "##ensity": 4357,
      "payable": 4358,
      "blu": 4359,
      "approximates": 4360,
      "212": 4361,
      "thirds": 4362,
      "captain": 4363,
      "selection": 4364,
      "shopping": 4365,
      "indic": 4366,
      "##ially": 4367,
      "##ermar": 4368,
      "5400": 4369,
      "preference": 4370,
      "engaged": 4371,
      "owned": 4372,
      "packet": 4373,
      "ready": 4374,
      "bills": 4375,
      "wheels": 4376,
      "literate": 4377,
      "revised": 4378,
      "elev": 4379,
      "supermar": 4380,
      "printers": 4381,
      "independent": 4382,
      "marketing": 4383,
      "law": 4384,
      "temperatures": 4385,
      "joining": 4386,
      "daniel": 4387,
      "provision": 4388,
      "1989": 4389,
      "rolls": 4390,
      "##board": 4391,
      "palindromes": 4392,
      "supply": 4393,
      "vijay": 4394,
      "continuous": 4395,
      "estimate": 4396,
      "burgers": 4397,
      "gifts": 4398,
      "adults": 4399,
      "peanuts": 4400,
      "satisfy": 4401,
      "elementary": 4402,
      "presses": 4403,
      "namely": 4404,
      "spirit": 4405,
      "labeled": 4406,
      "frogs": 4407,
      "parents": 4408,
      "split": 4409,
      "ghee": 4410,
      "hemisph": 4411,
      "executives": 4412,
      "ajay": 4413,
      "cale": 4414,
      "dut": 4415,
      "date": 4416,
      "esc": 4417,
      "hond": 4418,
      "iron": 4419,
      "je": 4420,
      "kr": 4421,
      "kid": 4422,
      "mist": 4423,
      "mail": 4424,
      "oz": 4425,
      "tan": 4426,
      "tell": 4427,
      "wine": 4428,
      "xero": 4429,
      "yog": 4430,
      "york": 4431,
      "##after": 4432,
      "##less": 4433,
      "##sia": 4434,
      "##round": 4435,
      "##rial": 4436,
      "##mod": 4437,
      "think": 4438,
      "##inator": 4439,
      "##rel": 4440,
      "##alator": 4441,
      "whis": 4442,
      "##orge": 4443,
      "##ecca": 4444,
      "ate": 4445,
      "##elle": 4446,
      "manus": 4447,
      "stem": 4448,
      "storm": 4449,
      "force": 4450,
      "tricky": 4451,
      "##utosh": 4452,
      "shap": 4453,
      "alph": 4454,
      "averaged": 4455,
      "##ote": 4456,
      "intensity": 4457,
      "plans": 4458,
      "monica": 4459,
      "mindy": 4460,
      "##anging": 4461,
      "thereafter": 4462,
      "maria": 4463,
      "marath": 4464,
      "##apse": 4465,
      "crick": 4466,
      "dried": 4467,
      "parties": 4468,
      "noticed": 4469,
      "##ovel": 4470,
      "2400": 4471,
      "roof": 4472,
      "employs": 4473,
      "36000": 4474,
      "disch": 4475,
      "spread": 4476,
      "halved": 4477,
      "flipped": 4478,
      "7500": 4479,
      "surround": 4480,
      "elapse": 4481,
      "taxed": 4482,
      "3200": 4483,
      "matt": 4484,
      "seated": 4485,
      "289": 4486,
      "typed": 4487,
      "evening": 4488,
      "##wards": 4489,
      "##others": 4490,
      "1990": 4491,
      "1998": 4492,
      "recent": 4493,
      "sonika": 4494,
      "calculating": 4495,
      "440": 4496,
      "loaded": 4497,
      "heading": 4498,
      "999": 4499,
      "parked": 4500,
      "xyz": 4501,
      "angles": 4502,
      "planes": 4503,
      "borrow": 4504,
      "departments": 4505,
      "typists": 4506,
      "location": 4507,
      "occur": 4508,
      "observes": 4509,
      "labour": 4510,
      "raises": 4511,
      "robot": 4512,
      "principle": 4513,
      "overtake": 4514,
      "overtakes": 4515,
      "bigger": 4516,
      "mork": 4517,
      "intersects": 4518,
      "graz": 4519,
      "switch": 4520,
      "reporters": 4521,
      "photograph": 4522,
      "christina": 4523,
      "falls": 4524,
      "ladder": 4525,
      "closing": 4526,
      "denominator": 4527,
      "tough": 4528,
      "ashutosh": 4529,
      "reservoirs": 4530,
      "software": 4531,
      "1365": 4532,
      "sweets": 4533,
      "internet": 4534,
      "released": 4535,
      "flew": 4536,
      "subscribes": 4537,
      "benefit": 4538,
      "rebecca": 4539,
      "industrial": 4540,
      "megate": 4541,
      "contributed": 4542,
      "propos": 4543,
      "accommod": 4544,
      "pigment": 4545,
      "unique": 4546,
      "vegetable": 4547,
      "likely": 4548,
      "biographies": 4549,
      "citiz": 4550,
      "##berries": 4551,
      "##cript": 4552,
      "lenses": 4553,
      "racing": 4554,
      "primes": 4555,
      "elevator": 4556,
      "duty": 4557,
      "escalator": 4558,
      "honda": 4559,
      "krish": 4560,
      "xerox": 4561,
      "yoga": 4562,
      "whisky": 4563,
      "manuscript": 4564,
      "stemmed": 4565,
      "shaped": 4566,
      "alphab": 4567,
      "cricketer": 4568,
      "cities": 4569,
      "eats": 4570,
      "ful": 4571,
      "gam": 4572,
      "giving": 4573,
      "hit": 4574,
      "held": 4575,
      "lts": 4576,
      "lisa": 4577,
      "ow": 4578,
      "pan": 4579,
      "public": 4580,
      "san": 4581,
      "##light": 4582,
      "##yam": 4583,
      "##monds": 4584,
      "##24": 4585,
      "##paper": 4586,
      "things": 4587,
      "##erg": 4588,
      "##erb": 4589,
      "##eric": 4590,
      "##omic": 4591,
      "##omores": 4592,
      "##isation": 4593,
      "##0000": 4594,
      "priya": 4595,
      "fort": 4596,
      "##amal": 4597,
      "##ameter": 4598,
      "106": 4599,
      "boots": 4600,
      "shin": 4601,
      "shyam": 4602,
      "almonds": 4603,
      "incur": 4604,
      "incomes": 4605,
      "conv": 4606,
      "155": 4607,
      "chip": 4608,
      "##ational": 4609,
      "carry": 4610,
      "suit": 4611,
      "dry": 4612,
      "invol": 4613,
      "pige": 4614,
      "fee": 4615,
      "containers": 4616,
      "deck": 4617,
      "brothers": 4618,
      "195": 4619,
      "192": 4620,
      "everyone": 4621,
      "noon": 4622,
      "parameter": 4623,
      "325": 4624,
      "central": 4625,
      "johnny": 4626,
      "losses": 4627,
      "life": 4628,
      "1992": 4629,
      "40000": 4630,
      "contact": 4631,
      "edit": 4632,
      "suggest": 4633,
      "##osene": 4634,
      "measurements": 4635,
      "representing": 4636,
      "fails": 4637,
      "675": 4638,
      "signs": 4639,
      "choices": 4640,
      "estate": 4641,
      "social": 4642,
      "collected": 4643,
      "break": 4644,
      "palindromic": 4645,
      "closest": 4646,
      "words": 4647,
      "##akshi": 4648,
      "organisation": 4649,
      "motorcyclist": 4650,
      "##bler": 4651,
      "magaz": 4652,
      "sophomores": 4653,
      "kennel": 4654,
      "supplier": 4655,
      "turban": 4656,
      "henry": 4657,
      "spanish": 4658,
      "notebooks": 4659,
      "doughnuts": 4660,
      "hindi": 4661,
      "kerosene": 4662,
      "sleeping": 4663,
      "practice": 4664,
      "marathon": 4665,
      "gambler": 4666,
      "suggested": 4667,
      "coup": 4668,
      "dorm": 4669,
      "gal": 4670,
      "hus": 4671,
      "hire": 4672,
      "holl": 4673,
      "jum": 4674,
      "jers": 4675,
      "karen": 4676,
      "mal": 4677,
      "mir": 4678,
      "nin": 4679,
      "pad": 4680,
      "rames": 4681,
      "tier": 4682,
      "tamm": 4683,
      "wil": 4684,
      "yol": 4685,
      "##tle": 4686,
      "##aw": 4687,
      "##sure": 4688,
      "##gth": 4689,
      "##hu": 4690,
      "##cumb": 4691,
      "##iners": 4692,
      "##esigned": 4693,
      "inner": 4694,
      "##reation": 4695,
      "##ena": 4696,
      "##itory": 4697,
      "##ether": 4698,
      "##oms": 4699,
      "##ains": 4700,
      "prak": 4701,
      "##ional": 4702,
      "##imet": 4703,
      "##iders": 4704,
      "stren": 4705,
      "stores": 4706,
      "stones": 4707,
      "forward": 4708,
      "##acs": 4709,
      "fraz": 4710,
      "##aker": 4711,
      "willam": 4712,
      "shad": 4713,
      "shown": 4714,
      "##adi": 4715,
      "alok": 4716,
      "heather": 4717,
      "201": 4718,
      "longest": 4719,
      "carries": 4720,
      "amit": 4721,
      "resist": 4722,
      "residents": 4723,
      "never": 4724,
      "marla": 4725,
      "suv": 4726,
      "##ago": 4727,
      "divides": 4728,
      "grav": 4729,
      "cucumb": 4730,
      "168": 4731,
      "partially": 4732,
      "diffic": 4733,
      "tankful": 4734,
      "cubical": 4735,
      "circuit": 4736,
      "##okes": 4737,
      "redesigned": 4738,
      "option": 4739,
      "1980": 4740,
      "3600": 4741,
      "spiders": 4742,
      "lasted": 4743,
      "224": 4744,
      "platinum": 4745,
      "assigned": 4746,
      "corner": 4747,
      "sever": 4748,
      "tripled": 4749,
      "42000": 4750,
      "commute": 4751,
      "indu": 4752,
      "weighed": 4753,
      "replica": 4754,
      "rounded": 4755,
      "membership": 4756,
      "include": 4757,
      "wrote": 4758,
      "corrected": 4759,
      "recently": 4760,
      "recreation": 4761,
      "##rica": 4762,
      "448": 4763,
      "quoted": 4764,
      "floating": 4765,
      "manufactured": 4766,
      "625": 4767,
      "375": 4768,
      "engineers": 4769,
      "shipping": 4770,
      "belong": 4771,
      "rupees": 4772,
      "pastry": 4773,
      "distributor": 4774,
      "george": 4775,
      "strokes": 4776,
      "casted": 4777,
      "individuals": 4778,
      "designed": 4779,
      "##onses": 4780,
      "screws": 4781,
      "lights": 4782,
      "ranch": 4783,
      "mornings": 4784,
      "absentee": 4785,
      "carpent": 4786,
      "numerator": 4787,
      "seeds": 4788,
      "grassy": 4789,
      "hyp": 4790,
      "touch": 4791,
      "ashok": 4792,
      "potat": 4793,
      "cello": 4794,
      "releases": 4795,
      "bindu": 4796,
      "flying": 4797,
      "houses": 4798,
      "responses": 4799,
      "prepare": 4800,
      "incorrectly": 4801,
      "migration": 4802,
      "##forcement": 4803,
      "plums": 4804,
      "instrument": 4805,
      "viola": 4806,
      "enclosed": 4807,
      "flowers": 4808,
      "organizations": 4809,
      "segment": 4810,
      "paychecks": 4811,
      "method": 4812,
      "alphabet": 4813,
      "dormitory": 4814,
      "hollow": 4815,
      "jersey": 4816,
      "mirror": 4817,
      "ramesh": 4818,
      "tammy": 4819,
      "wilson": 4820,
      "yolanda": 4821,
      "prakash": 4822,
      "strength": 4823,
      "frazer": 4824,
      "shadow": 4825,
      "cucumbers": 4826,
      "0000": 4827,
      "ach": 4828,
      "aud": 4829,
      "dam": 4830,
      "dug": 4831,
      "et": 4832,
      "gop": 4833,
      "gerb": 4834,
      "ig": 4835,
      "kx": 4836,
      "kw": 4837,
      "lect": 4838,
      "ml": 4839,
      "mart": 4840,
      "rock": 4841,
      "rolled": 4842,
      "riya": 4843,
      "tied": 4844,
      "tons": 4845,
      "uba": 4846,
      "wet": 4847,
      "weld": 4848,
      "##lal": 4849,
      "##road": 4850,
      "##iam": 4851,
      "##88": 4852,
      "##off": 4853,
      "##ji": 4854,
      "##ville": 4855,
      "##31": 4856,
      "##field": 4857,
      "##finitely": 4858,
      "##ered": 4859,
      "##onents": 4860,
      "##ald": 4861,
      "whale": 4862,
      "##outs": 4863,
      "##itive": 4864,
      "##ilities": 4865,
      "ath": 4866,
      "beach": 4867,
      "animal": 4868,
      "finance": 4869,
      "shovel": 4870,
      "altitude": 4871,
      "##ura": 4872,
      "##urance": 4873,
      "canoe": 4874,
      "##plan": 4875,
      "##ota": 4876,
      "156": 4877,
      "plank": 4878,
      "secure": 4879,
      "orders": 4880,
      "##arelal": 4881,
      "252": 4882,
      "allows": 4883,
      "allocated": 4884,
      "resolutions": 4885,
      "resolution": 4886,
      "##abit": 4887,
      "100000": 4888,
      "cogs": 4889,
      "##arded": 4890,
      "rectangles": 4891,
      "decade": 4892,
      "131": 4893,
      "scouts": 4894,
      "employment": 4895,
      "teas": 4896,
      "spot": 4897,
      "blocks": 4898,
      "centimet": 4899,
      "cord": 4900,
      "towns": 4901,
      "heights": 4902,
      "commun": 4903,
      "7230": 4904,
      "backward": 4905,
      "regist": 4906,
      "lift": 4907,
      "prefer": 4908,
      "##uctions": 4909,
      "gaskets": 4910,
      "insulation": 4911,
      "insurance": 4912,
      "headcount": 4913,
      "exceeding": 4914,
      "suganya": 4915,
      "landsc": 4916,
      "cylinders": 4917,
      "120000": 4918,
      "measurement": 4919,
      "condos": 4920,
      "indefinitely": 4921,
      "participate": 4922,
      "participated": 4923,
      "observed": 4924,
      "rival": 4925,
      "casts": 4926,
      "70000": 4927,
      "holding": 4928,
      "5300": 4929,
      "mango": 4930,
      "julie": 4931,
      "toyota": 4932,
      "speaks": 4933,
      "barb": 4934,
      "numeral": 4935,
      "cheaper": 4936,
      "collector": 4937,
      "palindrome": 4938,
      "programmers": 4939,
      "novels": 4940,
      "happen": 4941,
      "rising": 4942,
      "peanut": 4943,
      "undertakes": 4944,
      "subscribe": 4945,
      "abhay": 4946,
      "denominations": 4947,
      "coaches": 4948,
      "bullet": 4949,
      "concert": 4950,
      "##points": 4951,
      "hammers": 4952,
      "cabb": 4953,
      "wrenches": 4954,
      "trousers": 4955,
      "property": 4956,
      "connected": 4957,
      "anthony": 4958,
      "nurses": 4959,
      "pyarelal": 4960,
      "surrounded": 4961,
      "proposal": 4962,
      "pigeon": 4963,
      "coupon": 4964,
      "achie": 4965,
      "etc": 4966,
      "gerbils": 4967,
      "welders": 4968,
      "plankton": 4969,
      "landscape": 4970,
      "410": 4971,
      "680": 4972,
      "950": 4973,
      "bost": 4974,
      "edu": 4975,
      "ham": 4976,
      "hike": 4977,
      "lbs": 4978,
      "mb": 4979,
      "neck": 4980,
      "pill": 4981,
      "tins": 4982,
      "vice": 4983,
      "##ek": 4984,
      "##ez": 4985,
      "##eal": 4986,
      "##lon": 4987,
      "##56": 4988,
      "##rison": 4989,
      "##iance": 4990,
      "##ht": 4991,
      "##ci": 4992,
      "thir": 4993,
      "thick": 4994,
      "##rement": 4995,
      "##aler": 4996,
      "##iting": 4997,
      "##iled": 4998,
      "##iliters": 4999,
      "##omium": 5000,
      "##ician": 5001,
      "##icago": 5002,
      "prom": 5003,
      "##leg": 5004,
      "##lex": 5005,
      "states": 5006,
      "stacy": 5007,
      "beavers": 5008,
      "##olf": 5009,
      "##utical": 5010,
      "##teries": 5011,
      "109": 5012,
      "ships": 5013,
      "canteen": 5014,
      "##pliance": 5015,
      "ascends": 5016,
      "increment": 5017,
      "totally": 5018,
      "died": 5019,
      "chap": 5020,
      "chicago": 5021,
      "extract": 5022,
      "growing": 5023,
      "joey": 5024,
      "army": 5025,
      "appliance": 5026,
      "dead": 5027,
      "death": 5028,
      "##aceutical": 5029,
      "noted": 5030,
      "lesser": 5031,
      "139": 5032,
      "opp": 5033,
      "196": 5034,
      "everything": 5035,
      "smith": 5036,
      "consult": 5037,
      "purp": 5038,
      "##owners": 5039,
      "voted": 5040,
      "overfl": 5041,
      "markers": 5042,
      "shared": 5043,
      "united": 5044,
      "schools": 5045,
      "001": 5046,
      "fields": 5047,
      "4200": 5048,
      "##ervis": 5049,
      "555": 5050,
      "##izer": 5051,
      "ordered": 5052,
      "enters": 5053,
      "homeowners": 5054,
      "replace": 5055,
      "owners": 5056,
      "entirely": 5057,
      "draws": 5058,
      "defe": 5059,
      "juan": 5060,
      "pharm": 5061,
      "wallpaper": 5062,
      "525": 5063,
      "adri": 5064,
      "343": 5065,
      "parkway": 5066,
      "bik": 5067,
      "combine": 5068,
      "apartment": 5069,
      "312": 5070,
      "young": 5071,
      "medal": 5072,
      "medium": 5073,
      "action": 5074,
      "620": 5075,
      "circumfer": 5076,
      "pumped": 5077,
      "review": 5078,
      "delici": 5079,
      "provin": 5080,
      "6855": 5081,
      "very": 5082,
      "##plicate": 5083,
      "robin": 5084,
      "axles": 5085,
      "ramu": 5086,
      "modified": 5087,
      "picking": 5088,
      "jogging": 5089,
      "egg": 5090,
      "1982": 5091,
      "##enne": 5092,
      "chairman": 5093,
      "chairmen": 5094,
      "wholesaler": 5095,
      "installments": 5096,
      "donated": 5097,
      "garrison": 5098,
      "germs": 5099,
      "chromium": 5100,
      "construct": 5101,
      "fallen": 5102,
      "breaks": 5103,
      "saturated": 5104,
      "technician": 5105,
      "abcd": 5106,
      "milliliters": 5107,
      "prescribed": 5108,
      "shifts": 5109,
      "layout": 5110,
      "reciprocals": 5111,
      "missing": 5112,
      "binary": 5113,
      "wooden": 5114,
      "culture": 5115,
      "micr": 5116,
      "zeros": 5117,
      "discarded": 5118,
      "solicited": 5119,
      "video": 5120,
      "hemisphere": 5121,
      "ninth": 5122,
      "several": 5123,
      "boston": 5124,
      "educ": 5125,
      "pharmaceutical": 5126,
      "adrienne": 5127,
      "delicious": 5128,
      "bh": 5129,
      "bars": 5130,
      "baby": 5131,
      "ci": 5132,
      "cind": 5133,
      "det": 5134,
      "dess": 5135,
      "fare": 5136,
      "hir": 5137,
      "kelly": 5138,
      "mumb": 5139,
      "mys": 5140,
      "pear": 5141,
      "ron": 5142,
      "rush": 5143,
      "sad": 5144,
      "sail": 5145,
      "sakshi": 5146,
      "taught": 5147,
      "vict": 5148,
      "wov": 5149,
      "##mi": 5150,
      "##71": 5151,
      "##house": 5152,
      "##ja": 5153,
      "##case": 5154,
      "##fall": 5155,
      "##reed": 5156,
      "##reci": 5157,
      "##onies": 5158,
      "##arant": 5159,
      "##order": 5160,
      "##itable": 5161,
      "pras": 5162,
      "##ivated": 5163,
      "##oscope": 5164,
      "stone": 5165,
      "try": 5166,
      "##uled": 5167,
      "bog": 5168,
      "sharon": 5169,
      "heat": 5170,
      "123": 5171,
      "1234": 5172,
      "##nted": 5173,
      "totaled": 5174,
      "153": 5175,
      "door": 5176,
      "exist": 5177,
      "25000": 5178,
      "amith": 5179,
      "lenght": 5180,
      "afterwards": 5181,
      "grows": 5182,
      "162": 5183,
      "16000": 5184,
      "117": 5185,
      "183": 5186,
      "anne": 5187,
      "crossing": 5188,
      "##ovan": 5189,
      "bruce": 5190,
      "spin": 5191,
      "agreed": 5192,
      "simpl": 5193,
      "2006": 5194,
      "flips": 5195,
      "receiving": 5196,
      "approx": 5197,
      "overhead": 5198,
      "caps": 5199,
      "paints": 5200,
      "rower": 5201,
      "colored": 5202,
      "6562": 5203,
      "corners": 5204,
      "seven": 5205,
      "trips": 5206,
      "moved": 5207,
      "##ically": 5208,
      "forms": 5209,
      "subm": 5210,
      "##izes": 5211,
      "patient": 5212,
      "854": 5213,
      "writing": 5214,
      "lists": 5215,
      "depreci": 5216,
      "imp": 5217,
      "survive": 5218,
      "390": 5219,
      "combination": 5220,
      "sized": 5221,
      "630": 5222,
      "processed": 5223,
      "leakage": 5224,
      "departs": 5225,
      "tasks": 5226,
      "shipments": 5227,
      "subtracting": 5228,
      "consumes": 5229,
      "290": 5230,
      "continue": 5231,
      "courty": 5232,
      "puree": 5233,
      "cooking": 5234,
      "control": 5235,
      "desks": 5236,
      "rainfall": 5237,
      "guarant": 5238,
      "bakery": 5239,
      "palnted": 5240,
      "donovan": 5241,
      "sinks": 5242,
      "charitable": 5243,
      "constructing": 5244,
      "cheese": 5245,
      "bicycles": 5246,
      "districts": 5247,
      "gears": 5248,
      "attempted": 5249,
      "dining": 5250,
      "political": 5251,
      "transportation": 5252,
      "burning": 5253,
      "scheduled": 5254,
      "housing": 5255,
      "richard": 5256,
      "automobile": 5257,
      "sarah": 5258,
      "scheme": 5259,
      "gumballs": 5260,
      "appearing": 5261,
      "tourist": 5262,
      "doctors": 5263,
      "hundreds": 5264,
      "rohan": 5265,
      "lender": 5266,
      "kids": 5267,
      "discharge": 5268,
      "methods": 5269,
      "00001": 5270,
      "cindy": 5271,
      "dessert": 5272,
      "hiring": 5273,
      "mumbai": 5274,
      "pears": 5275,
      "woven": 5276,
      "depreciates": 5277,
      "aero": 5278,
      "astr": 5279,
      "best": 5280,
      "bang": 5281,
      "bert": 5282,
      "bells": 5283,
      "ce": 5284,
      "cors": 5285,
      "dick": 5286,
      "efr": 5287,
      "erica": 5288,
      "fer": 5289,
      "fgh": 5290,
      "fict": 5291,
      "ho": 5292,
      "hair": 5293,
      "icel": 5294,
      "jer": 5295,
      "jas": 5296,
      "kho": 5297,
      "lin": 5298,
      "lion": 5299,
      "lag": 5300,
      "lax": 5301,
      "nine": 5302,
      "nail": 5303,
      "nina": 5304,
      "nails": 5305,
      "our": 5306,
      "que": 5307,
      "sed": 5308,
      "sus": 5309,
      "search": 5310,
      "ta": 5311,
      "ties": 5312,
      "tanya": 5313,
      "upl": 5314,
      "vo": 5315,
      "ville": 5316,
      "yz": 5317,
      "yes": 5318,
      "zoo": 5319,
      "##town": 5320,
      "##aan": 5321,
      "##aired": 5322,
      "##sh": 5323,
      "##mine": 5324,
      "##mint": 5325,
      "##11": 5326,
      "##45": 5327,
      "##bra": 5328,
      "##cue": 5329,
      "##cony": 5330,
      "##uve": 5331,
      "##pture": 5332,
      "##val": 5333,
      "##vied": 5334,
      "##eres": 5335,
      "##escent": 5336,
      "##ndar": 5337,
      "##anc": 5338,
      "##annel": 5339,
      "##anna": 5340,
      "##enna": 5341,
      "##enuse": 5342,
      "whether": 5343,
      "##oral": 5344,
      "##orical": 5345,
      "##iter": 5346,
      "##inge": 5347,
      "##oming": 5348,
      "##change": 5349,
      "##chsia": 5350,
      "##isb": 5351,
      "##icent": 5352,
      "##ida": 5353,
      "stars": 5354,
      "##irrel": 5355,
      "##olley": 5356,
      "##estra": 5357,
      "fringe": 5358,
      "frisb": 5359,
      "fined": 5360,
      "avery": 5361,
      "canoes": 5362,
      "hex": 5363,
      "1210": 5364,
      "##otenuse": 5365,
      "incand": 5366,
      "##istic": 5367,
      "##uneration": 5368,
      "secures": 5369,
      "chart": 5370,
      "check": 5371,
      "channel": 5372,
      "leo": 5373,
      "lead": 5374,
      "levied": 5375,
      "exchange": 5376,
      "remuneration": 5377,
      "minus": 5378,
      "301": 5379,
      "resident": 5380,
      "##ellite": 5381,
      "mets": 5382,
      "4016": 5383,
      "interch": 5384,
      "margin": 5385,
      "cole": 5386,
      "cooks": 5387,
      "joan": 5388,
      "jogs": 5389,
      "squirrel": 5390,
      "applied": 5391,
      "crow": 5392,
      "travelers": 5393,
      "squared": 5394,
      "1120": 5395,
      "184": 5396,
      "189": 5397,
      "13000": 5398,
      "union": 5399,
      "456": 5400,
      "disp": 5401,
      "disks": 5402,
      "goals": 5403,
      "walt": 5404,
      "2002": 5405,
      "2001": 5406,
      "smart": 5407,
      "populated": 5408,
      "ballets": 5409,
      "##ucose": 5410,
      "voting": 5411,
      "jobs": 5412,
      "finishes": 5413,
      "finishing": 5414,
      "painters": 5415,
      "elena": 5416,
      "compounding": 5417,
      "milkman": 5418,
      "mauve": 5419,
      "baskets": 5420,
      "tried": 5421,
      "cycles": 5422,
      "foil": 5423,
      "subway": 5424,
      "72000": 5425,
      "amongst": 5426,
      "patients": 5427,
      "liam": 5428,
      "275": 5429,
      "stands": 5430,
      "reducing": 5431,
      "preced": 5432,
      "handle": 5433,
      "fuji": 5434,
      "fuchsia": 5435,
      "recorder": 5436,
      "mathura": 5437,
      "333": 5438,
      "speedster": 5439,
      "insect": 5440,
      "border": 5441,
      "look": 5442,
      "odds": 5443,
      "packets": 5444,
      "counted": 5445,
      "310": 5446,
      "mayoral": 5447,
      "sizes": 5448,
      "planet": 5449,
      "planning": 5450,
      "transfer": 5451,
      "arrival": 5452,
      "cuts": 5453,
      "copied": 5454,
      "questionna": 5455,
      "glucose": 5456,
      "fruits": 5457,
      "laure": 5458,
      "570": 5459,
      "vehicle": 5460,
      "harold": 5461,
      "harri": 5462,
      "##avorable": 5463,
      "camping": 5464,
      "julia": 5465,
      "descends": 5466,
      "modules": 5467,
      "balcony": 5468,
      "relocated": 5469,
      "turns": 5470,
      "guy": 5471,
      "evaporate": 5472,
      "ranj": 5473,
      "micheal": 5474,
      "demand": 5475,
      "cashe": 5476,
      "professional": 5477,
      "trapezoid": 5478,
      "hardcover": 5479,
      "waiters": 5480,
      "770": 5481,
      "germinated": 5482,
      "charles": 5483,
      "know": 5484,
      "mtrs": 5485,
      "satellite": 5486,
      "batting": 5487,
      "##ophysics": 5488,
      "historical": 5489,
      "touches": 5490,
      "millicent": 5491,
      "lowered": 5492,
      "chemicals": 5493,
      "respondents": 5494,
      "suffered": 5495,
      "snack": 5496,
      "estimates": 5497,
      "happy": 5498,
      "components": 5499,
      "looms": 5500,
      "satisfied": 5501,
      "fleet": 5502,
      "general": 5503,
      "reunions": 5504,
      "diploma": 5505,
      "monkeys": 5506,
      "typically": 5507,
      "cultivated": 5508,
      "latest": 5509,
      "14916": 5510,
      "badmint": 5511,
      "kayaks": 5512,
      "madison": 5513,
      "zeroes": 5514,
      "options": 5515,
      "schema": 5516,
      "federal": 5517,
      "heard": 5518,
      "orchard": 5519,
      "orchestra": 5520,
      "mutter": 5521,
      "claimed": 5522,
      "sculpture": 5523,
      "accepted": 5524,
      "dark": 5525,
      "reinforcement": 5526,
      "unfavorable": 5527,
      "indicated": 5528,
      "supermarkets": 5529,
      "calendar": 5530,
      "mistake": 5531,
      "megatek": 5532,
      "citizens": 5533,
      "krishan": 5534,
      "convey": 5535,
      "suitcase": 5536,
      "husk": 5537,
      "jumps": 5538,
      "carpenter": 5539,
      "hypotenuse": 5540,
      "province": 5541,
      "mysteries": 5542,
      "prasanna": 5543,
      "bogg": 5544,
      "simplify": 5545,
      "courtyard": 5546,
      "astrophysics": 5547,
      "corsages": 5548,
      "efrida": 5549,
      "ferris": 5550,
      "fictions": 5551,
      "iceland": 5552,
      "jerome": 5553,
      "jasmine": 5554,
      "lionel": 5555,
      "lagaan": 5556,
      "laxmi": 5557,
      "queen": 5558,
      "upload": 5559,
      "##value": 5560,
      "incandescent": 5561,
      "preceding": 5562,
      "questionnaire": 5563,
      "harriet": 5564,
      "badminton": 5565,
      "580": 5566,
      "bake": 5567,
      "batch": 5568,
      "cp": 5569,
      "cakes": 5570,
      "da": 5571,
      "dac": 5572,
      "fes": 5573,
      "faced": 5574,
      "hers": 5575,
      "lions": 5576,
      "ltr": 5577,
      "living": 5578,
      "mess": 5579,
      "pun": 5580,
      "ss": 5581,
      "soci": 5582,
      "ur": 5583,
      "uph": 5584,
      "wat": 5585,
      "ware": 5586,
      "##ten": 5587,
      "##ault": 5588,
      "##lant": 5589,
      "##lower": 5590,
      "##58": 5591,
      "##rance": 5592,
      "##radi": 5593,
      "##iased": 5594,
      "##14": 5595,
      "##biased": 5596,
      "##wh": 5597,
      "##wis": 5598,
      "##92": 5599,
      "theat": 5600,
      "##ering": 5601,
      "inradi": 5602,
      "##anch": 5603,
      "##ette": 5604,
      "##imals": 5605,
      "##olute": 5606,
      "1080": 5607,
      "fro": 5608,
      "frank": 5609,
      "william": 5610,
      "shut": 5611,
      "shot": 5612,
      "workman": 5613,
      "1250": 5614,
      "152": 5615,
      "##istics": 5616,
      "doc": 5617,
      "complex": 5618,
      "resort": 5619,
      "##eller": 5620,
      "##ibles": 5621,
      "crates": 5622,
      "166": 5623,
      "14000": 5624,
      "dev": 5625,
      "sheets": 5626,
      "##ishek": 5627,
      "filling": 5628,
      "##oves": 5629,
      "branch": 5630,
      "unbiased": 5631,
      "spider": 5632,
      "everyday": 5633,
      "lasts": 5634,
      "centers": 5635,
      "seat": 5636,
      "triple": 5637,
      "007": 5638,
      "boatman": 5639,
      "slant": 5640,
      "##ization": 5641,
      "##metric": 5642,
      "232": 5643,
      "entrance": 5644,
      "replaces": 5645,
      "1995": 5646,
      "calculus": 5647,
      "336": 5648,
      "diamonds": 5649,
      "builds": 5650,
      "served": 5651,
      "6300": 5652,
      "liquids": 5653,
      "exclusive": 5654,
      "airplane": 5655,
      "consumer": 5656,
      "support": 5657,
      "supervis": 5658,
      "##acteristic": 5659,
      "provident": 5660,
      "printed": 5661,
      "succeed": 5662,
      "gloves": 5663,
      "strik": 5664,
      "stew": 5665,
      "yielding": 5666,
      "1056": 5667,
      "signed": 5668,
      "intersection": 5669,
      "absolute": 5670,
      "midpoint": 5671,
      "biggest": 5672,
      "clubs": 5673,
      "concentric": 5674,
      "1983": 5675,
      "roller": 5676,
      "dishes": 5677,
      "followed": 5678,
      "christ": 5679,
      "characteristic": 5680,
      "numerical": 5681,
      "cheats": 5682,
      "reserve": 5683,
      "batches": 5684,
      "keeps": 5685,
      "statistics": 5686,
      "millet": 5687,
      "butterf": 5688,
      "frequ": 5689,
      "beginner": 5690,
      "buffet": 5691,
      "sweater": 5692,
      "gmat": 5693,
      "considered": 5694,
      "languages": 5695,
      "abhishek": 5696,
      "prepared": 5697,
      "interviewed": 5698,
      "grandson": 5699,
      "migr": 5700,
      "pupils": 5701,
      "symmetric": 5702,
      "certificates": 5703,
      "laborator": 5704,
      "losing": 5705,
      "bluegrass": 5706,
      "lawy": 5707,
      "tanks": 5708,
      "graze": 5709,
      "athlet": 5710,
      "pillar": 5711,
      "sailors": 5712,
      "voter": 5713,
      "hexagon": 5714,
      "interchanging": 5715,
      "dacid": 5716,
      "fescue": 5717,
      "uphill": 5718,
      "warehouse": 5719,
      "inradius": 5720,
      "025": 5721,
      "bx": 5722,
      "bil": 5723,
      "cable": 5724,
      "fav": 5725,
      "fore": 5726,
      "fab": 5727,
      "fod": 5728,
      "fash": 5729,
      "gcf": 5730,
      "golf": 5731,
      "hn": 5732,
      "mis": 5733,
      "national": 5734,
      "oar": 5735,
      "pets": 5736,
      "ponies": 5737,
      "ring": 5738,
      "ros": 5739,
      "rack": 5740,
      "sud": 5741,
      "sink": 5742,
      "sari": 5743,
      "tie": 5744,
      "tiss": 5745,
      "tub": 5746,
      "ticks": 5747,
      "ven": 5748,
      "vod": 5749,
      "vault": 5750,
      "war": 5751,
      "xav": 5752,
      "##ebr": 5753,
      "##lma": 5754,
      "##liners": 5755,
      "##54": 5756,
      "##rt": 5757,
      "##iet": 5758,
      "##iers": 5759,
      "##now": 5760,
      "##nually": 5761,
      "##ginal": 5762,
      "##84": 5763,
      "##19": 5764,
      "##13": 5765,
      "##42": 5766,
      "##bol": 5767,
      "##den": 5768,
      "##was": 5769,
      "##fish": 5770,
      "##zy": 5771,
      "ther": 5772,
      "thelma": 5773,
      "ingr": 5774,
      "inequ": 5775,
      "##ana": 5776,
      "##anese": 5777,
      "andnow": 5778,
      "##ontal": 5779,
      "##alore": 5780,
      "##orn": 5781,
      "##asc": 5782,
      "##iling": 5783,
      "##etle": 5784,
      "##oman": 5785,
      "##ecked": 5786,
      "##eleration": 5787,
      "##ims": 5788,
      "star": 5789,
      "stick": 5790,
      "forth": 5791,
      "forced": 5792,
      "beetle": 5793,
      "##amp": 5794,
      "animals": 5795,
      "##people": 5796,
      "##avan": 5797,
      "rats": 5798,
      "proceed": 5799,
      "107": 5800,
      "1050": 5801,
      "1020": 5802,
      "##ulet": 5803,
      "##ulif": 5804,
      "##aken": 5805,
      "workforce": 5806,
      "alive": 5807,
      "averag": 5808,
      "122": 5809,
      "208": 5810,
      "151": 5811,
      "taker": 5812,
      "webs": 5813,
      "secur": 5814,
      "chain": 5815,
      "chord": 5816,
      "chery": 5817,
      "chenna": 5818,
      "checked": 5819,
      "expect": 5820,
      "##phuric": 5821,
      "carl": 5822,
      "compr": 5823,
      "amanda": 5824,
      "##asso": 5825,
      "metro": 5826,
      "##ipts": 5827,
      "406": 5828,
      "marginal": 5829,
      "clou": 5830,
      "##ffle": 5831,
      "gram": 5832,
      "##anka": 5833,
      "119": 5834,
      "148": 5835,
      "142": 5836,
      "investors": 5837,
      "##oved": 5838,
      "245": 5839,
      "137": 5840,
      "scient": 5841,
      "spun": 5842,
      "357": 5843,
      "endpoints": 5844,
      "enable": 5845,
      "ensure": 5846,
      "flows": 5847,
      "75000": 5848,
      "receipts": 5849,
      "playgr": 5850,
      "balloon": 5851,
      "abroad": 5852,
      "suriya": 5853,
      "rests": 5854,
      "2200": 5855,
      "sharehol": 5856,
      "mah": 5857,
      "commence": 5858,
      "triangular": 5859,
      "slate": 5860,
      "##izontal": 5861,
      "indian": 5862,
      "wayne": 5863,
      "meteres": 5864,
      "capacities": 5865,
      "sqrt": 5866,
      "buyers": 5867,
      "blueberries": 5868,
      "raffle": 5869,
      "deficit": 5870,
      "instant": 5871,
      "phil": 5872,
      "recliners": 5873,
      "560000": 5874,
      "5280": 5875,
      "packed": 5876,
      "counties": 5877,
      "990": 5878,
      "teles": 5879,
      "##iannually": 5880,
      "arrange": 5881,
      "norway": 5882,
      "370": 5883,
      "borrows": 5884,
      "pumping": 5885,
      "dimension": 5886,
      "airplan": 5887,
      "consume": 5888,
      "typing": 5889,
      "470": 5890,
      "sixteen": 5891,
      "spherical": 5892,
      "sectors": 5893,
      "825": 5894,
      "670": 5895,
      "denn": 5896,
      "specialized": 5897,
      "successively": 5898,
      "870": 5899,
      "wireless": 5900,
      "electricity": 5901,
      "616": 5902,
      "10500": 5903,
      "semiannually": 5904,
      "512": 5905,
      "screens": 5906,
      "frenzy": 5907,
      "guess": 5908,
      "rahim": 5909,
      "intersecting": 5910,
      "germain": 5911,
      "chris": 5912,
      "charity": 5913,
      "conditioning": 5914,
      "horizontal": 5915,
      "figures": 5916,
      "assistance": 5917,
      "snacks": 5918,
      "vacant": 5919,
      "wanted": 5920,
      "dressing": 5921,
      "inspector": 5922,
      "angelina": 5923,
      "quartile": 5924,
      "music": 5925,
      "carton": 5926,
      "cartons": 5927,
      "undertook": 5928,
      "benefits": 5929,
      "subsequent": 5930,
      "lapse": 5931,
      "sophie": 5932,
      "tablets": 5933,
      "caulif": 5934,
      "nylon": 5935,
      "hammer": 5936,
      "##equals": 5937,
      "wrench": 5938,
      "trouser": 5939,
      "renov": 5940,
      "overlapping": 5941,
      "bleach": 5942,
      "mutual": 5943,
      "pints": 5944,
      "composite": 5945,
      "claims": 5946,
      "improved": 5947,
      "symbol": 5948,
      "certificate": 5949,
      "bombay": 5950,
      "sulphuric": 5951,
      "arcade": 5952,
      "labourer": 5953,
      "panel": 5954,
      "involved": 5955,
      "magazine": 5956,
      "gravel": 5957,
      "gopal": 5958,
      "lecture": 5959,
      "achieve": 5960,
      "hamsters": 5961,
      "mbb": 5962,
      "thirty": 5963,
      "purpose": 5964,
      "aeroplane": 5965,
      "bangalore": 5966,
      "hole": 5967,
      "conveyance": 5968,
      "##lantic": 5969,
      "striking": 5970,
      "butterfat": 5971,
      "fodder": 5972,
      "fashion": 5973,
      "hno": 5974,
      "rosy": 5975,
      "rackets": 5976,
      "tissue": 5977,
      "vodk": 5978,
      "xavier": 5979,
      "ingrid": 5980,
      "cheryl": 5981,
      "chennai": 5982,
      "scientists": 5983,
      "playground": 5984,
      "shareholders": 5985,
      "airplanes": 5986,
      "horizontally": 5987,
      "380": 5988,
      "910": 5989,
      "ae": 5990,
      "airc": 5991,
      "cel": 5992,
      "cig": 5993,
      "coc": 5994,
      "dy": 5995,
      "dio": 5996,
      "dere": 5997,
      "ey": 5998,
      "eur": 5999,
      "fa": 6000,
      "fest": 6001,
      "fear": 6002,
      "hav": 6003,
      "here": 6004,
      "haw": 6005,
      "il": 6006,
      "iod": 6007,
      "jut": 6008,
      "ll": 6009,
      "lock": 6010,
      "lau": 6011,
      "lanka": 6012,
      "mm": 6013,
      "mun": 6014,
      "maps": 6015,
      "mba": 6016,
      "nice": 6017,
      "pu": 6018,
      "paving": 6019,
      "pants": 6020,
      "qr": 6021,
      "races": 6022,
      "sk": 6023,
      "sri": 6024,
      "tb": 6025,
      "tig": 6026,
      "tail": 6027,
      "vers": 6028,
      "volts": 6029,
      "zach": 6030,
      "##einated": 6031,
      "##tes": 6032,
      "##tch": 6033,
      "##len": 6034,
      "##self": 6035,
      "##ych": 6036,
      "##yond": 6037,
      "##noon": 6038,
      "##gre": 6039,
      "##mel": 6040,
      "##mium": 6041,
      "##79": 6042,
      "##hill": 6043,
      "##hare": 6044,
      "##hib": 6045,
      "##habit": 6046,
      "##xide": 6047,
      "##cd": 6048,
      "##corn": 6049,
      "##900": 6050,
      "##fill": 6051,
      "##furic": 6052,
      "thom": 6053,
      "thinks": 6054,
      "##atively": 6055,
      "inlets": 6056,
      "inhabit": 6057,
      "##ret": 6058,
      "##rey": 6059,
      "##rements": 6060,
      "##educ": 6061,
      "##onometry": 6062,
      "##aring": 6063,
      "tor": 6064,
      "##ited": 6065,
      "##itch": 6066,
      "##itish": 6067,
      "##asion": 6068,
      "##etah": 6069,
      "##entory": 6070,
      "##isco": 6071,
      "##icip": 6072,
      "##elter": 6073,
      "prior": 6074,
      "##iminal": 6075,
      "##gebra": 6076,
      "##ayons": 6077,
      "##idist": 6078,
      "manage": 6079,
      "ster": 6080,
      "trig": 6081,
      "trolley": 6082,
      "beyond": 6083,
      "reem": 6084,
      "##tery": 6085,
      "##store": 6086,
      "franc": 6087,
      "shake": 6088,
      "shelter": 6089,
      "##adem": 6090,
      "algebra": 6091,
      "##ural": 6092,
      "202": 6093,
      "2015": 6094,
      "timing": 6095,
      "conf": 6096,
      "totaling": 6097,
      "154": 6098,
      "wealth": 6099,
      "secret": 6100,
      "##andise": 6101,
      "sameer": 6102,
      "ext": 6103,
      "expl": 6104,
      "extend": 6105,
      "##uss": 6106,
      "orient": 6107,
      "carried": 6108,
      "carved": 6109,
      "amy": 6110,
      "##abad": 6111,
      "equidist": 6112,
      "watermel": 6113,
      "afternoon": 6114,
      "##derabad": 6115,
      "##apy": 6116,
      "interested": 6117,
      "criminal": 6118,
      "crayons": 6119,
      "169": 6120,
      "11000": 6121,
      "inventory": 6122,
      "digging": 6123,
      "deplet": 6124,
      "##ardment": 6125,
      "shek": 6126,
      "annivers": 6127,
      "probable": 6128,
      "quits": 6129,
      "timeshare": 6130,
      "decaff": 6131,
      "decrements": 6132,
      "1360": 6133,
      "brian": 6134,
      "broke": 6135,
      "british": 6136,
      "uneduc": 6137,
      "spoke": 6138,
      "bush": 6139,
      "smoth": 6140,
      "35000": 6141,
      "ended": 6142,
      "noont": 6143,
      "756": 6144,
      "753": 6145,
      "##owned": 6146,
      "##arged": 6147,
      "popcorn": 6148,
      "academ": 6149,
      "178": 6150,
      "176": 6151,
      "173": 6152,
      "##ansion": 6153,
      "capulet": 6154,
      "assign": 6155,
      "cola": 6156,
      "basis": 6157,
      "282": 6158,
      "himself": 6159,
      "009": 6160,
      "downhill": 6161,
      "##raft": 6162,
      "4273": 6163,
      "slow": 6164,
      "##izard": 6165,
      "ballsare": 6166,
      "234": 6167,
      "homework": 6168,
      "premium": 6169,
      "engines": 6170,
      "swarm": 6171,
      "bookstore": 6172,
      "wrap": 6173,
      "writers": 6174,
      "calculation": 6175,
      "greenville": 6176,
      "sons": 6177,
      "accounting": 6178,
      "opening": 6179,
      "listco": 6180,
      "567": 6181,
      "348": 6182,
      "342": 6183,
      "managed": 6184,
      "managing": 6185,
      "county": 6186,
      "charging": 6187,
      "servings": 6188,
      "dividends": 6189,
      "3136": 6190,
      "462": 6191,
      "wheelers": 6192,
      "624": 6193,
      "singles": 6194,
      "arriving": 6195,
      "3750": 6196,
      "expansion": 6197,
      "leveling": 6198,
      "airbor": 6199,
      "9600": 6200,
      "operations": 6201,
      "provide": 6202,
      "6800": 6203,
      "court": 6204,
      "locust": 6205,
      "fastest": 6206,
      "glows": 6207,
      "occasion": 6208,
      "raising": 6209,
      "straw": 6210,
      "motel": 6211,
      "repaired": 6212,
      "875": 6213,
      "motorist": 6214,
      "merchandise": 6215,
      "robots": 6216,
      "coded": 6217,
      "815": 6218,
      "690": 6219,
      "6927": 6220,
      "related": 6221,
      "stretch": 6222,
      "filters": 6223,
      "michelle": 6224,
      "installation": 6225,
      "donation": 6226,
      "realised": 6227,
      "realizes": 6228,
      "marching": 6229,
      "##dyfield": 6230,
      "constructed": 6231,
      "committees": 6232,
      "numeric": 6233,
      "cheetah": 6234,
      "oversho": 6235,
      "avgof": 6236,
      "conditioned": 6237,
      "##box": 6238,
      "832": 6239,
      "quadratic": 6240,
      "hyderabad": 6241,
      "lindy": 6242,
      "albany": 6243,
      "experiments": 6244,
      "withdrew": 6245,
      "##neous": 6246,
      "contested": 6247,
      "salespersons": 6248,
      "##blers": 6249,
      "automatic": 6250,
      "latter": 6251,
      "megaby": 6252,
      "contributes": 6253,
      "pupil": 6254,
      "tenured": 6255,
      "anti": 6256,
      "supplies": 6257,
      "carbonated": 6258,
      "performance": 6259,
      "instruments": 6260,
      "heart": 6261,
      "psych": 6262,
      "renowned": 6263,
      "washing": 6264,
      "doctor": 6265,
      "chopped": 6266,
      "sculpt": 6267,
      "equipment": 6268,
      "occupied": 6269,
      "bombardment": 6270,
      "sulfuric": 6271,
      "quality": 6272,
      "accommodate": 6273,
      "accommodated": 6274,
      "fully": 6275,
      "shiny": 6276,
      "editors": 6277,
      "paddyfield": 6278,
      "touching": 6279,
      "potatoes": 6280,
      "audrey": 6281,
      "igneous": 6282,
      "township": 6283,
      "registration": 6284,
      "barbed": 6285,
      "thickness": 6286,
      "##legally": 6287,
      "extracted": 6288,
      "overflow": 6289,
      "defeat": 6290,
      "circumferences": 6291,
      "reviewing": 6292,
      "spinsters": 6293,
      "pune": 6294,
      "sociology": 6295,
      "urban": 6296,
      "theatres": 6297,
      "frozen": 6298,
      "frequency": 6299,
      "foreign": 6300,
      "warblers": 6301,
      "therapy": 6302,
      "inequal": 6303,
      "cloudy": 6304,
      "telescope": 6305,
      "dennis": 6306,
      "aircraft": 6307,
      "celebr": 6308,
      "cocon": 6309,
      "dioxide": 6310,
      "derek": 6311,
      "faulty": 6312,
      "festival": 6313,
      "haven": 6314,
      "hawks": 6315,
      "illegally": 6316,
      "iodine": 6317,
      "jutting": 6318,
      "laund": 6319,
      "municip": 6320,
      "zachary": 6321,
      "thomas": 6322,
      "inhabitants": 6323,
      "trigonometry": 6324,
      "reema": 6325,
      "francisco": 6326,
      "orientation": 6327,
      "equidistant": 6328,
      "watermelon": 6329,
      "anniversary": 6330,
      "decaffeinated": 6331,
      "uneducated": 6332,
      "noontime": 6333,
      "427398": 6334,
      "airborne": 6335,
      "locusts": 6336,
      "occasionally": 6337,
      "overshoot": 6338,
      "megabytes": 6339,
      "municipal": 6340,
      "820": 6341,
      "940": 6342,
      "aer": 6343,
      "aaron": 6344,
      "bind": 6345,
      "binders": 6346,
      "drew": 6347,
      "fert": 6348,
      "furred": 6349,
      "gy": 6350,
      "gary": 6351,
      "gates": 6352,
      "gms": 6353,
      "jam": 6354,
      "jade": 6355,
      "jenn": 6356,
      "josh": 6357,
      "kenn": 6358,
      "kamal": 6359,
      "lu": 6360,
      "lou": 6361,
      "lasso": 6362,
      "mall": 6363,
      "mab": 6364,
      "mps": 6365,
      "nest": 6366,
      "pain": 6367,
      "pos": 6368,
      "packs": 6369,
      "picks": 6370,
      "peck": 6371,
      "rings": 6372,
      "sue": 6373,
      "site": 6374,
      "ton": 6375,
      "tick": 6376,
      "upr": 6377,
      "vin": 6378,
      "vol": 6379,
      "vanas": 6380,
      "xz": 6381,
      "##lie": 6382,
      "##ligible": 6383,
      "##sp": 6384,
      "##ruit": 6385,
      "##ranged": 6386,
      "##roscope": 6387,
      "##nand": 6388,
      "##maker": 6389,
      "##81": 6390,
      "##66": 6391,
      "##23": 6392,
      "##king": 6393,
      "##kamal": 6394,
      "##bel": 6395,
      "##bac": 6396,
      "##ha": 6397,
      "##oop": 6398,
      "##dant": 6399,
      "##joy": 6400,
      "##jection": 6401,
      "##uores": 6402,
      "##pati": 6403,
      "##wise": 6404,
      "##watch": 6405,
      "##woman": 6406,
      "##ving": 6407,
      "##fred": 6408,
      "##zness": 6409,
      "thab": 6410,
      "thought": 6411,
      "thes": 6412,
      "##aters": 6413,
      "##nda": 6414,
      "island": 6415,
      "##rent": 6416,
      "##retion": 6417,
      "##anth": 6418,
      "##ense": 6419,
      "##edy": 6420,
      "##edies": 6421,
      "andb": 6422,
      "##onse": 6423,
      "told": 6424,
      "tobac": 6425,
      "##itre": 6426,
      "##ilizer": 6427,
      "##omin": 6428,
      "##chan": 6429,
      "##umes": 6430,
      "atoms": 6431,
      "##elets": 6432,
      "##ersto": 6433,
      "stip": 6434,
      "step": 6435,
      "stacks": 6436,
      "##umbs": 6437,
      "##illed": 6438,
      "beaker": 6439,
      "bearing": 6440,
      "##oliter": 6441,
      "ananth": 6442,
      "rejection": 6443,
      "103": 6444,
      "frame": 6445,
      "willy": 6446,
      "willing": 6447,
      "comedies": 6448,
      "##lyn": 6449,
      "##quet": 6450,
      "##ada": 6451,
      "canada": 6452,
      "207": 6453,
      "2012": 6454,
      "speedsters": 6455,
      "cones": 6456,
      "weaves": 6457,
      "plants": 6458,
      "diver": 6459,
      "suma": 6460,
      "##phants": 6461,
      "##phones": 6462,
      "salon": 6463,
      "3010": 6464,
      "2550": 6465,
      "compart": 6466,
      "compris": 6467,
      "valued": 6468,
      "resumes": 6469,
      "neigh": 6470,
      "1001": 6471,
      "super": 6472,
      "close": 6473,
      "clocks": 6474,
      "clients": 6475,
      "##ocop": 6476,
      "cmx": 6477,
      "grinder": 6478,
      "crumbs": 6479,
      "meals": 6480,
      "mechan": 6481,
      "##seed": 6482,
      "deers": 6483,
      "##oyd": 6484,
      "crossed": 6485,
      "litter": 6486,
      "decimeter": 6487,
      "cubelets": 6488,
      "additive": 6489,
      "1320": 6490,
      "buzness": 6491,
      "brain": 6492,
      "brass": 6493,
      "scot": 6494,
      "193": 6495,
      "hernand": 6496,
      "nothing": 6497,
      "nobel": 6498,
      "energ": 6499,
      "enjoy": 6500,
      "blade": 6501,
      "flav": 6502,
      "fluores": 6503,
      "##axy": 6504,
      "##ptember": 6505,
      "217": 6506,
      "171": 6507,
      "saleswoman": 6508,
      "marketers": 6509,
      "selecting": 6510,
      "kiloliter": 6511,
      "##rency": 6512,
      "matter": 6513,
      "maitre": 6514,
      "send": 6515,
      "september": 6516,
      "##itional": 6517,
      "highlight": 6518,
      "bases": 6519,
      "basement": 6520,
      "triath": 6521,
      "triplicate": 6522,
      "002": 6523,
      "004": 6524,
      "003": 6525,
      "##ectioner": 6526,
      "slip": 6527,
      "slides": 6528,
      "subash": 6529,
      "729": 6530,
      "264": 6531,
      "##tex": 6532,
      "stopwatch": 6533,
      "raw": 6534,
      "doubling": 6535,
      "547": 6536,
      "60000": 6537,
      "includes": 6538,
      "define": 6539,
      "jugs": 6540,
      "evans": 6541,
      "recruit": 6542,
      "6420": 6543,
      "568": 6544,
      "445": 6545,
      "adam": 6546,
      "countries": 6547,
      "395": 6548,
      "396": 6549,
      "farmland": 6550,
      "medals": 6551,
      "polly": 6552,
      "##eev": 6553,
      "angstr": 6554,
      "literature": 6555,
      "projected": 6556,
      "visual": 6557,
      "leaked": 6558,
      "##eshoes": 6559,
      "gardener": 6560,
      "visits": 6561,
      "shipped": 6562,
      "elephants": 6563,
      "representative": 6564,
      "typist": 6565,
      "failure": 6566,
      "8400": 6567,
      "banking": 6568,
      "geomet": 6569,
      "geoff": 6570,
      "locals": 6571,
      "horseshoes": 6572,
      "independence": 6573,
      "spheres": 6574,
      "dropping": 6575,
      "diagonally": 6576,
      "banquet": 6577,
      "understo": 6578,
      "steak": 6579,
      "8200": 6580,
      "575": 6581,
      "accident": 6582,
      "accidents": 6583,
      "verdant": 6584,
      "vertex": 6585,
      "hari": 6586,
      "harkamal": 6587,
      "logan": 6588,
      "760": 6589,
      "530": 6590,
      "draining": 6591,
      "associate": 6592,
      "models": 6593,
      "698": 6594,
      "trading": 6595,
      "traditional": 6596,
      "pete": 6597,
      "screw": 6598,
      "midway": 6599,
      "relative": 6600,
      "eaten": 6601,
      "ranks": 6602,
      "diminishes": 6603,
      "film": 6604,
      "boards": 6605,
      "nickel": 6606,
      "professor": 6607,
      "hardware": 6608,
      "photocop": 6609,
      "charlie": 6610,
      "maintaining": 6611,
      "eventually": 6612,
      "shortest": 6613,
      "acidic": 6614,
      "replacing": 6615,
      "brenda": 6616,
      "closet": 6617,
      "records": 6618,
      "recorded": 6619,
      "debent": 6620,
      "keeping": 6621,
      "melting": 6622,
      "statues": 6623,
      "ashley": 6624,
      "currency": 6625,
      "##ospace": 6626,
      "negligible": 6627,
      "softball": 6628,
      "birdseed": 6629,
      "snail": 6630,
      "climbed": 6631,
      "jaclyn": 6632,
      "alternatively": 6633,
      "convertibles": 6634,
      "sweaters": 6635,
      "inspects": 6636,
      "internal": 6637,
      "quarts": 6638,
      "efficiently": 6639,
      "contestant": 6640,
      "molec": 6641,
      "rajeev": 6642,
      "motorcycle": 6643,
      "motorcycles": 6644,
      "response": 6645,
      "interviewers": 6646,
      "alberto": 6647,
      "rotates": 6648,
      "rotating": 6649,
      "micron": 6650,
      "rearranged": 6651,
      "kaye": 6652,
      "madhu": 6653,
      "propeller": 6654,
      "pollinated": 6655,
      "asteroids": 6656,
      "discretion": 6657,
      "flashes": 6658,
      "chops": 6659,
      "hundredth": 6660,
      "apprent": 6661,
      "laborers": 6662,
      "loser": 6663,
      "carrots": 6664,
      "qualified": 6665,
      "jeff": 6666,
      "fulfill": 6667,
      "gala": 6668,
      "galaxy": 6669,
      "2017": 6670,
      "resistors": 6671,
      "difficult": 6672,
      "difficulty": 6673,
      "rancher": 6674,
      "jerseys": 6675,
      "centimetre": 6676,
      "communities": 6677,
      "cabbages": 6678,
      "promo": 6679,
      "opponents": 6680,
      "bikes": 6681,
      "education": 6682,
      "victory": 6683,
      "imposes": 6684,
      "linear": 6685,
      "susan": 6686,
      "frisbees": 6687,
      "charts": 6688,
      "smartphones": 6689,
      "cashews": 6690,
      "boggies": 6691,
      "mahesh": 6692,
      "arrangement": 6693,
      "cauliflower": 6694,
      "##hibition": 6695,
      "sterling": 6696,
      "confectioner": 6697,
      "extended": 6698,
      "bushel": 6699,
      "aerospace": 6700,
      "fertilizer": 6701,
      "gyroscope": 6702,
      "kennedy": 6703,
      "luke": 6704,
      "mabel": 6705,
      "painter": 6706,
      "poster": 6707,
      "upright": 6708,
      "vanaspati": 6709,
      "thabo": 6710,
      "tobacco": 6711,
      "ananthu": 6712,
      "hernandez": 6713,
      "energy": 6714,
      "fluorescent": 6715,
      "highlighters": 6716,
      "angstroms": 6717,
      "geometric": 6718,
      "understood": 6719,
      "discretionary": 6720,
      "apprentices": 6721,
      "036": 6722,
      "735": 6723,
      "810": 6724,
      "860": 6725,
      "af": 6726,
      "berry": 6727,
      "dm": 6728,
      "dear": 6729,
      "dinning": 6730,
      "fares": 6731,
      "fred": 6732,
      "gb": 6733,
      "gp": 6734,
      "greas": 6735,
      "hun": 6736,
      "hock": 6737,
      "jen": 6738,
      "jay": 6739,
      "jumb": 6740,
      "jap": 6741,
      "kram": 6742,
      "luc": 6743,
      "lily": 6744,
      "ms": 6745,
      "mn": 6746,
      "mp": 6747,
      "nth": 6748,
      "rim": 6749,
      "ray": 6750,
      "russ": 6751,
      "si": 6752,
      "tul": 6753,
      "treas": 6754,
      "tiled": 6755,
      "vans": 6756,
      "yo": 6757,
      "yw": 6758,
      "yet": 6759,
      "##tlen": 6760,
      "##lling": 6761,
      "##ios": 6762,
      "##iff": 6763,
      "##iate": 6764,
      "##ious": 6765,
      "##gl": 6766,
      "##mer": 6767,
      "##mates": 6768,
      "##be": 6769,
      "##hat": 6770,
      "##hir": 6771,
      "##coming": 6772,
      "##96": 6773,
      "##94": 6774,
      "##zie": 6775,
      "theft": 6776,
      "##inating": 6777,
      "##atis": 6778,
      "##ndra": 6779,
      "isan": 6780,
      "andrew": 6781,
      "tolling": 6782,
      "##oun": 6783,
      "##etically": 6784,
      "##child": 6785,
      "##entary": 6786,
      "perm": 6787,
      "aren": 6788,
      "##imentary": 6789,
      "howm": 6790,
      "tract": 6791,
      "trout": 6792,
      "traff": 6793,
      "##ola": 6794,
      "##utes": 6795,
      "##uted": 6796,
      "numbering": 6797,
      "ratios": 6798,
      "boats": 6799,
      "worn": 6800,
      "showing": 6801,
      "canister": 6802,
      "1280": 6803,
      "1225": 6804,
      "1260": 6805,
      "205": 6806,
      "2050": 6807,
      "##ongs": 6808,
      "doors": 6809,
      "plaster": 6810,
      "diana": 6811,
      "lewis": 6812,
      "sumit": 6813,
      "studies": 6814,
      "256": 6815,
      "alloc": 6816,
      "##elled": 6817,
      "405": 6818,
      "equipped": 6819,
      "grown": 6820,
      "interests": 6821,
      "drug": 6822,
      "147": 6823,
      "1480": 6824,
      "1440": 6825,
      "1430": 6826,
      "185": 6827,
      "182": 6828,
      "weighted": 6829,
      "##ardless": 6830,
      "probabilities": 6831,
      "soon": 6832,
      "quick": 6833,
      "little": 6834,
      "decide": 6835,
      "247": 6836,
      "24000": 6837,
      "1331": 6838,
      "roger": 6839,
      "classroom": 6840,
      "spots": 6841,
      "goal": 6842,
      "agency": 6843,
      "##tured": 6844,
      "##orts": 6845,
      "211": 6846,
      "abel": 6847,
      "1728": 6848,
      "captured": 6849,
      "223": 6850,
      "olds": 6851,
      "else": 6852,
      "assess": 6853,
      "bookshop": 6854,
      "653": 6855,
      "matched": 6856,
      "see": 6857,
      "sees": 6858,
      "reaching": 6859,
      "anyone": 6860,
      "008": 6861,
      "425": 6862,
      "422": 6863,
      "424": 6864,
      "423": 6865,
      "kilomet": 6866,
      "obtains": 6867,
      "requited": 6868,
      "regardless": 6869,
      "269": 6870,
      "reduces": 6871,
      "5420": 6872,
      "rounding": 6873,
      "1994": 6874,
      "calf": 6875,
      "surfaces": 6876,
      "instance": 6877,
      "phones": 6878,
      "factorization": 6879,
      "6400": 6880,
      "content": 6881,
      "diamond": 6882,
      "terminating": 6883,
      "postman": 6884,
      "465": 6885,
      "medic": 6886,
      "exponents": 6887,
      "conduct": 6888,
      "index": 6889,
      "revol": 6890,
      "idle": 6891,
      "20004": 6892,
      "385": 6893,
      "3840": 6894,
      "666": 6895,
      "fencin": 6896,
      "495": 6897,
      "kendra": 6898,
      "784": 6899,
      "intervie": 6900,
      "distribute": 6901,
      "distributes": 6902,
      "deliv": 6903,
      "delivers": 6904,
      "identify": 6905,
      "glove": 6906,
      "occurred": 6907,
      "labelled": 6908,
      "1000000": 6909,
      "repet": 6910,
      "effici": 6911,
      "efforts": 6912,
      "sporting": 6913,
      "##ilaterals": 6914,
      "attach": 6915,
      "window": 6916,
      "grounds": 6917,
      "evaporates": 6918,
      "1988": 6919,
      "intersected": 6920,
      "donations": 6921,
      "carpets": 6922,
      "cashier": 6923,
      "deduct": 6924,
      "officer": 6925,
      "8300": 6926,
      "quadrilaterals": 6927,
      "##fruit": 6928,
      "objective": 6929,
      "eastward": 6930,
      "towel": 6931,
      "competitive": 6932,
      "utilities": 6933,
      "picture": 6934,
      "healthy": 6935,
      "healthier": 6936,
      "international": 6937,
      "bringing": 6938,
      "fewest": 6939,
      "976": 6940,
      "westward": 6941,
      "##628": 6942,
      "rajesh": 6943,
      "targeted": 6944,
      "pqr": 6945,
      "tablet": 6946,
      "concurrent": 6947,
      "named": 6948,
      "cuboids": 6949,
      "polling": 6950,
      "turtlen": 6951,
      "properties": 6952,
      "uniquely": 6953,
      "birthdays": 6954,
      "bleached": 6955,
      "rohit": 6956,
      "occupy": 6957,
      "reinv": 6958,
      "unfilled": 6959,
      "supermarket": 6960,
      "continuously": 6961,
      "carrying": 6962,
      "magazines": 6963,
      "pads": 6964,
      "potato": 6965,
      "martin": 6966,
      "centimetres": 6967,
      "community": 6968,
      "cabbage": 6969,
      "chapati": 6970,
      "chapatis": 6971,
      "ceiling": 6972,
      "searchlight": 6973,
      "looking": 6974,
      "##where": 6975,
      "supervisors": 6976,
      "laboratory": 6977,
      "lawyers": 6978,
      "averaging": 6979,
      "security": 6980,
      "expects": 6981,
      "dyn": 6982,
      "wrapped": 6983,
      "strawberries": 6984,
      "coconut": 6985,
      "steps": 6986,
      "flavored": 6987,
      "dearness": 6988,
      "greased": 6989,
      "hung": 6990,
      "hockey": 6991,
      "jumbo": 6992,
      "japanese": 6993,
      "kramer": 6994,
      "russian": 6995,
      "tulips": 6996,
      "traffic": 6997,
      "plastering": 6998,
      "turtleneck": 6999,
      "710": 7000,
      "ai": 7001,
      "bb": 7002,
      "bun": 7003,
      "bab": 7004,
      "cock": 7005,
      "du": 7006,
      "dair": 7007,
      "eigh": 7008,
      "edd": 7009,
      "fis": 7010,
      "fel": 7011,
      "gan": 7012,
      "gir": 7013,
      "hue": 7014,
      "hop": 7015,
      "hang": 7016,
      "hint": 7017,
      "habit": 7018,
      "ir": 7019,
      "jol": 7020,
      "jones": 7021,
      "kit": 7022,
      "kath": 7023,
      "lid": 7024,
      "lets": 7025,
      "lov": 7026,
      "lane": 7027,
      "lub": 7028,
      "lacs": 7029,
      "lizard": 7030,
      "mum": 7031,
      "ng": 7032,
      "nom": 7033,
      "nag": 7034,
      "nature": 7035,
      "oh": 7036,
      "oct": 7037,
      "oates": 7038,
      "owe": 7039,
      "pil": 7040,
      "pull": 7041,
      "pined": 7042,
      "push": 7043,
      "rag": 7044,
      "sound": 7045,
      "sah": 7046,
      "tic": 7047,
      "tide": 7048,
      "tacs": 7049,
      "vas": 7050,
      "vir": 7051,
      "vip": 7052,
      "view": 7053,
      "wy": 7054,
      "yv": 7055,
      "zeld": 7056,
      "##eer": 7057,
      "##east": 7058,
      "##tor": 7059,
      "##tage": 7060,
      "##tail": 7061,
      "##time": 7062,
      "##tague": 7063,
      "##aj": 7064,
      "##aes": 7065,
      "##aing": 7066,
      "##li": 7067,
      "##lna": 7068,
      "##set": 7069,
      "##sel": 7070,
      "##scrib": 7071,
      "##rants": 7072,
      "##rued": 7073,
      "##nter": 7074,
      "##nies": 7075,
      "##nair": 7076,
      "##ged": 7077,
      "##main": 7078,
      "##83": 7079,
      "##kon": 7080,
      "##bid": 7081,
      "##backs": 7082,
      "##bits": 7083,
      "##hs": 7084,
      "##hau": 7085,
      "##oiled": 7086,
      "##oja": 7087,
      "##cases": 7088,
      "##ua": 7089,
      "##uk": 7090,
      "##uum": 7091,
      "##unt": 7092,
      "##uff": 7093,
      "##py": 7094,
      "##will": 7095,
      "##wear": 7096,
      "##word": 7097,
      "##95": 7098,
      "##37": 7099,
      "##feit": 7100,
      "##zens": 7101,
      "thor": 7102,
      "thous": 7103,
      "##ern": 7104,
      "##erges": 7105,
      "ofth": 7106,
      "##inery": 7107,
      "##atives": 7108,
      "##ene": 7109,
      "##edent": 7110,
      "##onics": 7111,
      "##onne": 7112,
      "toc": 7113,
      "whop": 7114,
      "##orist": 7115,
      "##organ": 7116,
      "##itives": 7117,
      "##itures": 7118,
      "##itutes": 7119,
      "##ili": 7120,
      "##iluted": 7121,
      "##etizer": 7122,
      "##ump": 7123,
      "##ument": 7124,
      "##entin": 7125,
      "##ential": 7126,
      "##isy": 7127,
      "##isions": 7128,
      "##isms": 7129,
      "##ecedent": 7130,
      "attract": 7131,
      "##ela": 7132,
      "prave": 7133,
      "##thur": 7134,
      "##erson": 7135,
      "##imour": 7136,
      "##aya": 7137,
      "##aysia": 7138,
      "##leen": 7139,
      "forget": 7140,
      "forbid": 7141,
      "trish": 7142,
      "anoop": 7143,
      "##aco": 7144,
      "##acuse": 7145,
      "##igration": 7146,
      "reaction": 7147,
      "prohibition": 7148,
      "##stand": 7149,
      "##storm": 7150,
      "##ulum": 7151,
      "twel": 7152,
      "daytime": 7153,
      "shore": 7154,
      "shower": 7155,
      "##ades": 7156,
      "##plish": 7157,
      "1212": 7158,
      "1275": 7159,
      "2020": 7160,
      "##otion": 7161,
      "##otonics": 7162,
      "tims": 7163,
      "timoth": 7164,
      "consequ": 7165,
      "158": 7166,
      "##egar": 7167,
      "##oper": 7168,
      "dozens": 7169,
      "weaving": 7170,
      "plast": 7171,
      "##andan": 7172,
      "china": 7173,
      "chili": 7174,
      "extern": 7175,
      "exhau": 7176,
      "orn": 7177,
      "orph": 7178,
      "montague": 7179,
      "remove": 7180,
      "carn": 7181,
      "carmen": 7182,
      "carri": 7183,
      "255": 7184,
      "compare": 7185,
      "allerg": 7186,
      "valve": 7187,
      "##elling": 7188,
      "##assette": 7189,
      "##abai": 7190,
      "408": 7191,
      "whenever": 7192,
      "suzie": 7193,
      "clerm": 7194,
      "clips": 7195,
      "cliff": 7196,
      "##uretor": 7197,
      "##ocassette": 7198,
      "coat": 7199,
      "coaster": 7200,
      "##apore": 7201,
      "equaled": 7202,
      "arthur": 7203,
      "aptitude": 7204,
      "means": 7205,
      "pooja": 7206,
      "emerges": 7207,
      "greg": 7208,
      "146": 7209,
      "depend": 7210,
      "digital": 7211,
      "pies": 7212,
      "tanker": 7213,
      "quentin": 7214,
      "additives": 7215,
      "246": 7216,
      "reductions": 7217,
      "unp": 7218,
      "unins": 7219,
      "unsure": 7220,
      "458": 7221,
      "soldiers": 7222,
      "password": 7223,
      "194": 7224,
      "peach": 7225,
      "365": 7226,
      "text": 7227,
      "sped": 7228,
      "spoiled": 7229,
      "outc": 7230,
      "themsel": 7231,
      "##plement": 7232,
      "upon": 7233,
      "upto": 7234,
      "356": 7235,
      "machinery": 7236,
      "##oughly": 7237,
      "noelle": 7238,
      "constitutes": 7239,
      "florist": 7240,
      "playa": 7241,
      "704": 7242,
      "poppy": 7243,
      "215": 7244,
      "214": 7245,
      "213": 7246,
      "2120": 7247,
      "acqu": 7248,
      "access": 7249,
      "parli": 7250,
      "obra": 7251,
      "172": 7252,
      "221": 7253,
      "radiation": 7254,
      "32000": 7255,
      "coloured": 7256,
      "centre": 7257,
      "seash": 7258,
      "283": 7259,
      "fractional": 7260,
      "anytown": 7261,
      "4800": 7262,
      "48000": 7263,
      "gaining": 7264,
      "former": 7265,
      "slump": 7266,
      "725": 7267,
      "7200": 7268,
      "india": 7269,
      "faruk": 7270,
      "beggin": 7271,
      "computation": 7272,
      "##clips": 7273,
      "268": 7274,
      "2310": 7275,
      "bluejay": 7276,
      "276": 7277,
      "272": 7278,
      "27000": 7279,
      "54000": 7280,
      "bottled": 7281,
      "examine": 7282,
      "somewhere": 7283,
      "swiss": 7284,
      "emptying": 7285,
      "855": 7286,
      "bookcases": 7287,
      "handling": 7288,
      "periods": 7289,
      "definitely": 7290,
      "instal": 7291,
      "juans": 7292,
      "##gsley": 7293,
      "reckon": 7294,
      "drivers": 7295,
      "##ricants": 7296,
      "##riculum": 7297,
      "containg": 7298,
      "5600": 7299,
      "528": 7300,
      "5200": 7301,
      "##veland": 7302,
      "headed": 7303,
      "termite": 7304,
      "assumed": 7305,
      "papaya": 7306,
      "serve": 7307,
      "serves": 7308,
      "combust": 7309,
      "ruined": 7310,
      "rugs": 7311,
      "collaps": 7312,
      "6200": 7313,
      "singapore": 7314,
      "literacy": 7315,
      "435": 7316,
      "436": 7317,
      "circumscrib": 7318,
      "paperclips": 7319,
      "equations": 7320,
      "expenditures": 7321,
      "condomin": 7322,
      "questionnair": 7323,
      "revisions": 7324,
      "swimmer": 7325,
      "381": 7326,
      "6600": 7327,
      "960": 7328,
      "490": 7329,
      "footwear": 7330,
      "representatives": 7331,
      "keats": 7332,
      "liberal": 7333,
      "paste": 7334,
      "operated": 7335,
      "participant": 7336,
      "686": 7337,
      "proportions": 7338,
      "chemists": 7339,
      "glued": 7340,
      "string": 7341,
      "steven": 7342,
      "removes": 7343,
      "cleveland": 7344,
      "accrued": 7345,
      "sits": 7346,
      "planting": 7347,
      "repay": 7348,
      "effective": 7349,
      "merge": 7350,
      "successful": 7351,
      "5358": 7352,
      "camels": 7353,
      "mangos": 7354,
      "nearby": 7355,
      "attending": 7356,
      "attendance": 7357,
      "413": 7358,
      "robins": 7359,
      "juliet": 7360,
      "controlled": 7361,
      "8100": 7362,
      "##obiles": 7363,
      "mode": 7364,
      "1442": 7365,
      "petri": 7366,
      "enterpr": 7367,
      "rainstorm": 7368,
      "overtaken": 7369,
      "594": 7370,
      "1087": 7371,
      "windbl": 7372,
      "sunfl": 7373,
      "sunset": 7374,
      "baker": 7375,
      "dishwas": 7376,
      "donald": 7377,
      "cashed": 7378,
      "variables": 7379,
      "barrel": 7380,
      "waits": 7381,
      "##roorgan": 7382,
      "chrome": 7383,
      "numer": 7384,
      "campers": 7385,
      "##ontville": 7386,
      "matching": 7387,
      "separated": 7388,
      "counter": 7389,
      "conditionor": 7390,
      "cupboard": 7391,
      "9421": 7392,
      "assisted": 7393,
      "breed": 7394,
      "breath": 7395,
      "ridden": 7396,
      "lottery": 7397,
      "varieties": 7398,
      "closer": 7399,
      "recorders": 7400,
      "##ophotonics": 7401,
      "vertical": 7402,
      "12880": 7403,
      "jimmy": 7404,
      "tosses": 7405,
      "curriculum": 7406,
      "subsets": 7407,
      "rejects": 7408,
      "1265": 7409,
      "towed": 7410,
      "snakes": 7411,
      "impressions": 7412,
      "happens": 7413,
      "happily": 7414,
      "vacuum": 7415,
      "semicircular": 7416,
      "saturdays": 7417,
      "honor": 7418,
      "materials": 7419,
      "mountains": 7420,
      "contestants": 7421,
      "generic": 7422,
      "genetically": 7423,
      "colours": 7424,
      "syracuse": 7425,
      "undertake": 7426,
      "carburetor": 7427,
      "instructions": 7428,
      "magn": 7429,
      "advances": 7430,
      "functional": 7431,
      "pressing": 7432,
      "grandchild": 7433,
      "declares": 7434,
      "automobiles": 7435,
      "bullets": 7436,
      "microorgan": 7437,
      "industry": 7438,
      "##ification": 7439,
      "antecedent": 7440,
      "artist": 7441,
      "accomplish": 7442,
      "performs": 7443,
      "displaying": 7444,
      "##ginia": 7445,
      "biography": 7446,
      "beeh": 7447,
      "composition": 7448,
      "compositions": 7449,
      "kingfish": 7450,
      "anthill": 7451,
      "improper": 7452,
      "darcy": 7453,
      "videocassette": 7454,
      "equiped": 7455,
      "apply": 7456,
      "appetizer": 7457,
      "karl": 7458,
      "ranked": 7459,
      "carrier": 7460,
      "caleb": 7461,
      "mistook": 7462,
      "mailed": 7463,
      "grazing": 7464,
      "megatech": 7465,
      "citizen": 7466,
      "owlna": 7467,
      "malaysia": 7468,
      "gravelling": 7469,
      "audio": 7470,
      "ign": 7471,
      "marts": 7472,
      "rocket": 7473,
      "teasers": 7474,
      "registrants": 7475,
      "happened": 7476,
      "##ezia": 7477,
      "promotion": 7478,
      "smithtown": 7479,
      "microphotonics": 7480,
      "educated": 7481,
      "capsule": 7482,
      "capsules": 7483,
      "submitted": 7484,
      "guarantee": 7485,
      "sedans": 7486,
      "sedimentary": 7487,
      "taimour": 7488,
      "leading": 7489,
      "unionized": 7490,
      "lauren": 7491,
      "laureates": 7492,
      "ranjan": 7493,
      "ranjith": 7494,
      "1491625": 7495,
      "daisy": 7496,
      "document": 7497,
      "stewar": 7498,
      "migrating": 7499,
      "athlete": 7500,
      "fabric": 7501,
      "misread": 7502,
      "sudhir": 7503,
      "venezia": 7504,
      "renovated": 7505,
      "cigar": 7506,
      "lloyd": 7507,
      "pugsley": 7508,
      "versa": 7509,
      "secretary": 7510,
      "explains": 7511,
      "smothie": 7512,
      "psychology": 7513,
      "sculptures": 7514,
      "laundry": 7515,
      "joshua": 7516,
      "vinegar": 7517,
      "thesph": 7518,
      "stipulated": 7519,
      "compartments": 7520,
      "scott": 7521,
      "enjoyed": 7522,
      "traditionalists": 7523,
      "jefferson": 7524,
      "mpg": 7525,
      "permission": 7526,
      "allocates": 7527,
      "assessed": 7528,
      "delivering": 7529,
      "repetition": 7530,
      "efficiency": 7531,
      "attaching": 7532,
      "dynaco": 7533,
      "bunnies": 7534,
      "cocktail": 7535,
      "duplicate": 7536,
      "dairy": 7537,
      "eighth": 7538,
      "eddie": 7539,
      "felt": 7540,
      "huey": 7541,
      "habitat": 7542,
      "jolene": 7543,
      "kathleen": 7544,
      "lubricants": 7545,
      "mumabai": 7546,
      "nominal": 7547,
      "ohms": 7548,
      "pilot": 7549,
      "pinedale": 7550,
      "raghu": 7551,
      "sahil": 7552,
      "virginia": 7553,
      "yvonne": 7554,
      "zelda": 7555,
      "thoroughly": 7556,
      "thousand": 7557,
      "ofthese": 7558,
      "whopping": 7559,
      "praveen": 7560,
      "trishul": 7561,
      "timothy": 7562,
      "consequent": 7563,
      "plastic": 7564,
      "exhaust": 7565,
      "orphan": 7566,
      "carriages": 7567,
      "allergic": 7568,
      "clermontville": 7569,
      "uninsured": 7570,
      "themselves": 7571,
      "parliament": 7572,
      "seashells": 7573,
      "beggining": 7574,
      "bluejays": 7575,
      "reckoned": 7576,
      "combustion": 7577,
      "collapsing": 7578,
      "condominium": 7579,
      "questionnaires": 7580,
      "windblown": 7581,
      "sunflower": 7582,
      "dishwasher": 7583,
      "counterfeit": 7584,
      "microorganisms": 7585,
      "kingfishers": 7586,
      "980": 7587,
      "aa": 7588,
      "afore": 7589,
      "bs": 7590,
      "bent": 7591,
      "cum": 7592,
      "cage": 7593,
      "cater": 7594,
      "dall": 7595,
      "dun": 7596,
      "eating": 7597,
      "fat": 7598,
      "fut": 7599,
      "fired": 7600,
      "fellow": 7601,
      "fitted": 7602,
      "fences": 7603,
      "hate": 7604,
      "hte": 7605,
      "ky": 7606,
      "kan": 7607,
      "kir": 7608,
      "kab": 7609,
      "las": 7610,
      "lamp": 7611,
      "mt": 7612,
      "mcd": 7613,
      "nat": 7614,
      "nit": 7615,
      "nets": 7616,
      "oars": 7617,
      "ping": 7618,
      "pow": 7619,
      "pong": 7620,
      "peng": 7621,
      "penn": 7622,
      "pots": 7623,
      "pasc": 7624,
      "raced": 7625,
      "rout": 7626,
      "rbr": 7627,
      "ted": 7628,
      "tape": 7629,
      "tina": 7630,
      "var": 7631,
      "vik": 7632,
      "wink": 7633,
      "yr": 7634,
      "##ex": 7635,
      "##tling": 7636,
      "##aequals": 7637,
      "##loe": 7638,
      "##larged": 7639,
      "##yming": 7640,
      "##rb": 7641,
      "##iation": 7642,
      "##iant": 7643,
      "##gar": 7644,
      "##gate": 7645,
      "##mall": 7646,
      "##85": 7647,
      "##89": 7648,
      "##800": 7649,
      "##22": 7650,
      "##29": 7651,
      "##41": 7652,
      "##76": 7653,
      "##he": 7654,
      "##hon": 7655,
      "##har": 7656,
      "##hood": 7657,
      "##hym": 7658,
      "##ding": 7659,
      "##dale": 7660,
      "##jul": 7661,
      "##cing": 7662,
      "##col": 7663,
      "##cand": 7664,
      "##uch": 7665,
      "##uins": 7666,
      "##posed": 7667,
      "##win": 7668,
      "##water": 7669,
      "##wich": 7670,
      "##vil": 7671,
      "##vature": 7672,
      "##vette": 7673,
      "##39": 7674,
      "##fo": 7675,
      "##fely": 7676,
      "theor": 7677,
      "##ino": 7678,
      "##inion": 7679,
      "##inter": 7680,
      "##atlantic": 7681,
      "infl": 7682,
      "##rete": 7683,
      "##anite": 7684,
      "##onz": 7685,
      "##onent": 7686,
      "##onald": 7687,
      "##arch": 7688,
      "##arian": 7689,
      "##arily": 7690,
      "##alt": 7691,
      "##alk": 7692,
      "tool": 7693,
      "tops": 7694,
      "##oring": 7695,
      "##itor": 7696,
      "##itter": 7697,
      "##itary": 7698,
      "##ila": 7699,
      "##omg": 7700,
      "##check": 7701,
      "##umulated": 7702,
      "whatwill": 7703,
      "ifaequals": 7704,
      "atthe": 7705,
      "atlantic": 7706,
      "prade": 7707,
      "onto": 7708,
      "##thik": 7709,
      "##ersely": 7710,
      "##ioned": 7711,
      "##idate": 7712,
      "##idux": 7713,
      "stram": 7714,
      "stoke": 7715,
      "beer": 7716,
      "thatbe": 7717,
      "##aments": 7718,
      "##amatics": 7719,
      "anush": 7720,
      "anvil": 7721,
      "##acement": 7722,
      "##iginal": 7723,
      "##igner": 7724,
      "##igious": 7725,
      "recheck": 7726,
      "proced": 7727,
      "1010": 7728,
      "##ected": 7729,
      "##ulative": 7730,
      "##earound": 7731,
      "boils": 7732,
      "##que": 7733,
      "##quare": 7734,
      "sho": 7735,
      "shaded": 7736,
      "##plies": 7737,
      "1240": 7738,
      "##tainment": 7739,
      "aside": 7740,
      "totality": 7741,
      "1550": 7742,
      "inte": 7743,
      "##opes": 7744,
      "pla": 7745,
      "plain": 7746,
      "dip": 7747,
      "muse": 7748,
      "cherry": 7749,
      "chef": 7750,
      "champ": 7751,
      "chloe": 7752,
      "exit": 7753,
      "explan": 7754,
      "##used": 7755,
      "integr": 7756,
      "military": 7757,
      "amomg": 7758,
      "resell": 7759,
      "##ablish": 7760,
      "502": 7761,
      "504": 7762,
      "theremain": 7763,
      "intercon": 7764,
      "intercol": 7765,
      "1002": 7766,
      "sure": 7767,
      "cler": 7768,
      "cool": 7769,
      "coated": 7770,
      "divident": 7771,
      "grove": 7772,
      "granite": 7773,
      "604": 7774,
      "ares": 7775,
      "producer": 7776,
      "sellis": 7777,
      "116": 7778,
      "113": 7779,
      "1125": 7780,
      "11628": 7781,
      "inversely": 7782,
      "1412": 7783,
      "186": 7784,
      "187": 7785,
      "feast": 7786,
      "soil": 7787,
      "deceleration": 7788,
      "##okers": 7789,
      "248": 7790,
      "243": 7791,
      "2442": 7792,
      "1350": 7793,
      "##ysical": 7794,
      "uncle": 7795,
      "unsp": 7796,
      "unused": 7797,
      "newbor": 7798,
      "roja": 7799,
      "opinion": 7800,
      "##mentioned": 7801,
      "peo": 7802,
      "368": 7803,
      "tees": 7804,
      "discover": 7805,
      "spur": 7806,
      "spade": 7807,
      "sperical": 7808,
      "agree": 7809,
      "aggre": 7810,
      "herd": 7811,
      "200000": 7812,
      "upward": 7813,
      "355": 7814,
      "352": 7815,
      "payer": 7816,
      "enlarged": 7817,
      "##ockout": 7818,
      "219": 7819,
      "21000": 7820,
      "acre": 7821,
      "##formation": 7822,
      "1700": 7823,
      "1760": 7824,
      "902": 7825,
      "##ainted": 7826,
      "salesmen": 7827,
      "salespeople": 7828,
      "suraj": 7829,
      "youth": 7830,
      "capable": 7831,
      "2250": 7832,
      "salepeople": 7833,
      "1202": 7834,
      "elim": 7835,
      "settling": 7836,
      "326": 7837,
      "corvette": 7838,
      "based": 7839,
      "triples": 7840,
      "287": 7841,
      "2800": 7842,
      "differential": 7843,
      "multiplic": 7844,
      "multiplies": 7845,
      "formation": 7846,
      "formations": 7847,
      "presently": 7848,
      "##izing": 7849,
      "##forejul": 7850,
      "compute": 7851,
      "262": 7852,
      "26000": 7853,
      "231": 7854,
      "237": 7855,
      "2300": 7856,
      "stockbr": 7857,
      "852": 7858,
      "consisted": 7859,
      "dolls": 7860,
      "funds": 7861,
      "physical": 7862,
      "recipes": 7863,
      "mathamatics": 7864,
      "listing": 7865,
      "441": 7866,
      "4400": 7867,
      "4444": 7868,
      "52000": 7869,
      "ada": 7870,
      "advert": 7871,
      "lover": 7872,
      "cloths": 7873,
      "mileage": 7874,
      "image": 7875,
      "implement": 7876,
      "993": 7877,
      "serving": 7878,
      "469": 7879,
      "463": 7880,
      "billboard": 7881,
      "casino": 7882,
      "wheeler": 7883,
      "6250": 7884,
      "angie": 7885,
      "transatlantic": 7886,
      "elected": 7887,
      "projects": 7888,
      "expense": 7889,
      "430": 7890,
      "gardens": 7891,
      "saltwater": 7892,
      "##esha": 7893,
      "pumice": 7894,
      "startingof": 7895,
      "topics": 7896,
      "292": 7897,
      "294": 7898,
      "sandwich": 7899,
      "dogsled": 7900,
      "cycled": 7901,
      "cyclic": 7902,
      "956": 7903,
      "operates": 7904,
      "4771": 7905,
      "##ationship": 7906,
      "##lette": 7907,
      "located": 7908,
      "cookie": 7909,
      "previously": 7910,
      "creates": 7911,
      "crews": 7912,
      "prints": 7913,
      "drops": 7914,
      "bacterium": 7915,
      "banu": 7916,
      "banks": 7917,
      "undiluted": 7918,
      "removal": 7919,
      "usually": 7920,
      "roulette": 7921,
      "acceleration": 7922,
      "accumulated": 7923,
      "holdings": 7924,
      "network": 7925,
      "veridux": 7926,
      "765": 7927,
      "986": 7928,
      "987": 7929,
      "fishes": 7930,
      "examinations": 7931,
      "raman": 7932,
      "described": 7933,
      "designer": 7934,
      "eras": 7935,
      "eros": 7936,
      "tune": 7937,
      "entertainment": 7938,
      "tiny": 7939,
      "religious": 7940,
      "relationship": 7941,
      "feeding": 7942,
      "8800": 7943,
      "##asha": 7944,
      "rhym": 7945,
      "rhyming": 7946,
      "admits": 7947,
      "localvalue": 7948,
      "sunny": 7949,
      "winningcand": 7950,
      "budgets": 7951,
      "cattle": 7952,
      "establish": 7953,
      "barber": 7954,
      "facility": 7955,
      "hardback": 7956,
      "contributions": 7957,
      "waiting": 7958,
      "9200": 7959,
      "9261": 7960,
      "contracts": 7961,
      "parallelograms": 7962,
      "bicyclist": 7963,
      "knockout": 7964,
      "determines": 7965,
      "rhombuses": 7966,
      "942": 7967,
      "rider": 7968,
      "vegas": 7969,
      "1904": 7970,
      "corresponds": 7971,
      "melts": 7972,
      "curvature": 7973,
      "1024": 7974,
      "subscrip": 7975,
      "taller": 7976,
      "wedding": 7977,
      "storing": 7978,
      "freely": 7979,
      "sevenths": 7980,
      "novel": 7981,
      "carpeting": 7982,
      "estimation": 7983,
      "duck": 7984,
      "inspection": 7985,
      "lemons": 7986,
      "gmaes": 7987,
      "##incing": 7988,
      "auto": 7989,
      "missed": 7990,
      "safely": 7991,
      "considering": 7992,
      "considerable": 7993,
      "generation": 7994,
      "heavily": 7995,
      "23040": 7996,
      "benefici": 7997,
      "airlines": 7998,
      "magic": 7999,
      "displacement": 8000,
      "##ifying": 8001,
      "rotten": 8002,
      "##nected": 8003,
      "21600": 8004,
      "latin": 8005,
      "ploughed": 8006,
      "concrete": 8007,
      "seaplane": 8008,
      "loading": 8009,
      "sarongs": 8010,
      "##equally": 8011,
      "1111": 8012,
      "iii": 8013,
      "miniature": 8014,
      "smoothies": 8015,
      "vegetarian": 8016,
      "necessarily": 8017,
      "connecting": 8018,
      "spiral": 8019,
      "likes": 8020,
      "citern": 8021,
      "##789": 8022,
      "1277": 8023,
      "patterns": 8024,
      "notebook": 8025,
      "organization": 8026,
      "doughnut": 8027,
      "segments": 8028,
      "refers": 8029,
      "improve": 8030,
      "##borhood": 8031,
      "fetching": 8032,
      "karthik": 8033,
      "stays": 8034,
      "carrie": 8035,
      "mailing": 8036,
      "owing": 8037,
      "owning": 8038,
      "shining": 8039,
      "convincing": 8040,
      "involving": 8041,
      "gopi": 8042,
      "lectures": 8043,
      "teaser": 8044,
      "barbata": 8045,
      "achieved": 8046,
      "##legiate": 8047,
      "consulting": 8048,
      "consultant": 8049,
      "overflows": 8050,
      "defeated": 8051,
      "biker": 8052,
      "circumferential": 8053,
      "microscope": 8054,
      "detected": 8055,
      "victor": 8056,
      "submit": 8057,
      "combinations": 8058,
      "dock": 8059,
      "succeeding": 8060,
      "absolutevalue": 8061,
      "christine": 8062,
      "favour": 8063,
      "favoured": 8064,
      "##ascar": 8065,
      "chords": 8066,
      "comprise": 8067,
      "comprised": 8068,
      "vodka": 8069,
      "vodkas": 8070,
      "tigers": 8071,
      "torhym": 8072,
      "depletiation": 8073,
      "shekar": 8074,
      "academic": 8075,
      "celebrated": 8076,
      "louie": 8077,
      "tonnes": 8078,
      "andbequals": 8079,
      "comprising": 8080,
      "neighborhood": 8081,
      "jayant": 8082,
      "howmuch": 8083,
      "revolves": 8084,
      "ganesh": 8085,
      "lovers": 8086,
      "octane": 8087,
      "wyoming": 8088,
      "attracts": 8089,
      "ornaments": 8090,
      "unpainted": 8091,
      "outcome": 8092,
      "circumscribes": 8093,
      "enterpris": 8094,
      "numerals": 8095,
      "magnified": 8096,
      "ignore": 8097,
      "aforementioned": 8098,
      "cumulative": 8099,
      "dallas": 8100,
      "future": 8101,
      "kyle": 8102,
      "kanul": 8103,
      "kiran": 8104,
      "kabadi": 8105,
      "mcdonald": 8106,
      "natasha": 8107,
      "powder": 8108,
      "penguins": 8109,
      "pascal": 8110,
      "routes": 8111,
      "rbrrb": 8112,
      "vikas": 8113,
      "theoriginal": 8114,
      "pradeep": 8115,
      "thatbeforejul": 8116,
      "anusha": 8117,
      "rechecking": 8118,
      "procedure": 8119,
      "museum": 8120,
      "explanation": 8121,
      "theremaining": 8122,
      "interconnected": 8123,
      "intercollegiate": 8124,
      "unspent": 8125,
      "newborn": 8126,
      "aggregate": 8127,
      "multiplication": 8128,
      "stockbrokers": 8129,
      "rhyme": 8130,
      "winningcandidate": 8131,
      "establishment": 8132,
      "subscription": 8133,
      "torhymearound": 8134,
      "thatbeforejuly": 8135,
      "050": 8136,
      "034": 8137,
      "920": 8138,
      "975": 8139,
      "aqu": 8140,
      "aff": 8141,
      "aven": 8142,
      "bd": 8143,
      "bon": 8144,
      "bis": 8145,
      "barg": 8146,
      "cin": 8147,
      "cave": 8148,
      "cfo": 8149,
      "dece": 8150,
      "ditch": 8151,
      "dhon": 8152,
      "esh": 8153,
      "fn": 8154,
      "fan": 8155,
      "fing": 8156,
      "fog": 8157,
      "fold": 8158,
      "fountain": 8159,
      "gate": 8160,
      "gthe": 8161,
      "gcd": 8162,
      "hive": 8163,
      "hok": 8164,
      "hose": 8165,
      "ill": 8166,
      "jk": 8167,
      "jud": 8168,
      "jams": 8169,
      "kt": 8170,
      "ki": 8171,
      "kinder": 8172,
      "kavi": 8173,
      "led": 8174,
      "lear": 8175,
      "lak": 8176,
      "lamps": 8177,
      "mow": 8178,
      "magg": 8179,
      "miam": 8180,
      "nh": 8181,
      "nig": 8182,
      "nandan": 8183,
      "oce": 8184,
      "pp": 8185,
      "pit": 8186,
      "pul": 8187,
      "pock": 8188,
      "pub": 8189,
      "qrs": 8190,
      "rome": 8191,
      "rural": 8192,
      "ropes": 8193,
      "seper": 8194,
      "sau": 8195,
      "sik": 8196,
      "sss": 8197,
      "tires": 8198,
      "tether": 8199,
      "tains": 8200,
      "uma": 8201,
      "vow": 8202,
      "vul": 8203,
      "via": 8204,
      "wing": 8205,
      "woke": 8206,
      "wolf": 8207,
      "xx": 8208,
      "xw": 8209,
      "yank": 8210,
      "yah": 8211,
      "##eenth": 8212,
      "##ta": 8213,
      "##tan": 8214,
      "##tie": 8215,
      "##tower": 8216,
      "##tective": 8217,
      "##line": 8218,
      "##like": 8219,
      "##lims": 8220,
      "##sent": 8221,
      "##500": 8222,
      "##yles": 8223,
      "##rg": 8224,
      "##ract": 8225,
      "##rics": 8226,
      "##rator": 8227,
      "##rically": 8228,
      "##iard": 8229,
      "##iacs": 8230,
      "##nat": 8231,
      "##night": 8232,
      "##nment": 8233,
      "##nuts": 8234,
      "##gt": 8235,
      "##go": 8236,
      "##gart": 8237,
      "##mon": 8238,
      "##mar": 8239,
      "##most": 8240,
      "##mate": 8241,
      "##made": 8242,
      "##82": 8243,
      "##87": 8244,
      "##65": 8245,
      "##69": 8246,
      "##400": 8247,
      "##475": 8248,
      "##kare": 8249,
      "##kgre": 8250,
      "##kking": 8251,
      "##bow": 8252,
      "##bic": 8253,
      "##bur": 8254,
      "##band": 8255,
      "##berry": 8256,
      "##bush": 8257,
      "##hid": 8258,
      "##oen": 8259,
      "##ohol": 8260,
      "##dst": 8261,
      "##due": 8262,
      "##jet": 8263,
      "##xter": 8264,
      "##cell": 8265,
      "##cup": 8266,
      "##uations": 8267,
      "##upled": 8268,
      "##pay": 8269,
      "##pur": 8270,
      "##pies": 8271,
      "##wals": 8272,
      "##walk": 8273,
      "##vas": 8274,
      "##vard": 8275,
      "##33": 8276,
      "##321": 8277,
      "##fers": 8278,
      "##fol": 8279,
      "##fare": 8280,
      "##fast": 8281,
      "##fire": 8282,
      "##fried": 8283,
      "##zero": 8284,
      "##erch": 8285,
      "##erce": 8286,
      "##erica": 8287,
      "ofkare": 8288,
      "##iny": 8289,
      "##ining": 8290,
      "##inav": 8291,
      "##inist": 8292,
      "##ateg": 8293,
      "##esis": 8294,
      "##nded": 8295,
      "incent": 8296,
      "##rea": 8297,
      "##aning": 8298,
      "##anity": 8299,
      "##enge": 8300,
      "##edi": 8301,
      "andrea": 8302,
      "##arium": 8303,
      "##arified": 8304,
      "##alination": 8305,
      "toff": 8306,
      "##ories": 8307,
      "##orated": 8308,
      "##oudst": 8309,
      "##asons": 8310,
      "##etary": 8311,
      "##etooth": 8312,
      "##etrically": 8313,
      "##chery": 8314,
      "##uminum": 8315,
      "whats": 8316,
      "##isks": 8317,
      "##isposed": 8318,
      "##ecement": 8319,
      "##ainer": 8320,
      "attain": 8321,
      "atte": 8322,
      "atri": 8323,
      "pram": 8324,
      "prorated": 8325,
      "proudst": 8326,
      "onions": 8327,
      "oncoming": 8328,
      "online": 8329,
      "##ths": 8330,
      "##levard": 8331,
      "manfred": 8332,
      "manhat": 8333,
      "stated": 8334,
      "sticky": 8335,
      "styles": 8336,
      "forty": 8337,
      "trails": 8338,
      "beaur": 8339,
      "##vernment": 8340,
      "##amas": 8341,
      "##utarch": 8342,
      "antic": 8343,
      "##igo": 8344,
      "rex": 8345,
      "reey": 8346,
      "reena": 8347,
      "reasons": 8348,
      "rather": 8349,
      "protective": 8350,
      "fractions": 8351,
      "##aka": 8352,
      "##akil": 8353,
      "twin": 8354,
      "twins": 8355,
      "booth": 8356,
      "worms": 8357,
      "##quets": 8358,
      "##quake": 8359,
      "shade": 8360,
      "shots": 8361,
      "shakil": 8362,
      "alan": 8363,
      "alley": 8364,
      "alfred": 8365,
      "aluminum": 8366,
      "##urning": 8367,
      "cane": 8368,
      "canvas": 8369,
      "heap": 8370,
      "hema": 8371,
      "209": 8372,
      "2025": 8373,
      "2037": 8374,
      "asph": 8375,
      "asia": 8376,
      "concer": 8377,
      "convin": 8378,
      "##allenge": 8379,
      "training": 8380,
      "1510": 8381,
      "1560": 8382,
      "##ego": 8383,
      "##opher": 8384,
      "##opri": 8385,
      "##unched": 8386,
      "plutarch": 8387,
      "secs": 8388,
      "##andah": 8389,
      "diet": 8390,
      "diane": 8391,
      "difer": 8392,
      "diego": 8393,
      "chile": 8394,
      "chances": 8395,
      "chases": 8396,
      "chase": 8397,
      "changing": 8398,
      "challenge": 8399,
      "leas": 8400,
      "leaning": 8401,
      "diving": 8402,
      "##uses": 8403,
      "##using": 8404,
      "orbits": 8405,
      "monetary": 8406,
      "integral": 8407,
      "carla": 8408,
      "caravan": 8409,
      "cargo": 8410,
      "mind": 8411,
      "minakshi": 8412,
      "##ematic": 8413,
      "305": 8414,
      "2535": 8415,
      "amoun": 8416,
      "ammon": 8417,
      "america": 8418,
      "reserch": 8419,
      "##ipated": 8420,
      "507": 8421,
      "509": 8422,
      "503": 8423,
      "5050": 8424,
      "402": 8425,
      "404": 8426,
      "##angle": 8427,
      "thereof": 8428,
      "solar": 8429,
      "solved": 8430,
      "solves": 8431,
      "##ibu": 8432,
      "marry": 8433,
      "marsh": 8434,
      "distract": 8435,
      "client": 8436,
      "clarified": 8437,
      "##occup": 8438,
      "##ateboard": 8439,
      "##agascar": 8440,
      "##apro": 8441,
      "gray": 8442,
      "605": 8443,
      "joel": 8444,
      "arb": 8445,
      "archery": 8446,
      "interesting": 8447,
      "##ultural": 8448,
      "##dule": 8449,
      "##duce": 8450,
      "dramas": 8451,
      "161": 8452,
      "1680": 8453,
      "1620": 8454,
      "poison": 8455,
      "pointer": 8456,
      "1136": 8457,
      "1170": 8458,
      "##seff": 8459,
      "181": 8460,
      "integerskgre": 8461,
      "pausing": 8462,
      "sheela": 8463,
      "sheila": 8464,
      "annika": 8465,
      "pie": 8466,
      "differences": 8467,
      "startup": 8468,
      "sox": 8469,
      "quanity": 8470,
      "decades": 8471,
      "addison": 8472,
      "2420": 8473,
      "1340": 8474,
      "1344": 8475,
      "bund": 8476,
      "brim": 8477,
      "brakes": 8478,
      "brings": 8479,
      "bronz": 8480,
      "unbox": 8481,
      "unequally": 8482,
      "unoccup": 8483,
      "scub": 8484,
      "scram": 8485,
      "scoring": 8486,
      "455": 8487,
      "soldier": 8488,
      "newly": 8489,
      "employers": 8490,
      "1950": 8491,
      "1970": 8492,
      "1978": 8493,
      "1979": 8494,
      "366": 8495,
      "tee": 8496,
      "dislike": 8497,
      "spins": 8498,
      "spaces": 8499,
      "outstand": 8500,
      "government": 8501,
      "agent": 8502,
      "agents": 8503,
      "agric": 8504,
      "walnuts": 8505,
      "2004": 8506,
      "user": 8507,
      "payoff": 8508,
      "envel": 8509,
      "enforcement": 8510,
      "blind": 8511,
      "candles": 8512,
      "appropri": 8513,
      "approximation": 8514,
      "popular": 8515,
      "2100": 8516,
      "abe": 8517,
      "possib": 8518,
      "1720": 8519,
      "offence": 8520,
      "youseff": 8521,
      "overdue": 8522,
      "sidewalk": 8523,
      "226": 8524,
      "2240": 8525,
      "markings": 8526,
      "1206": 8527,
      "paintings": 8528,
      "machineapro": 8529,
      "taxpay": 8530,
      "platys": 8531,
      "compounds": 8532,
      "65000": 8533,
      "gallery": 8534,
      "sequ": 8535,
      "seating": 8536,
      "teamwork": 8537,
      "482": 8538,
      "retired": 8539,
      "returning": 8540,
      "thrives": 8541,
      "largely": 8542,
      "resulted": 8543,
      "commerce": 8544,
      "slices": 8545,
      "55000": 8546,
      "indisposed": 8547,
      "indigo": 8548,
      "265": 8549,
      "2600": 8550,
      "238": 8551,
      "dougl": 8552,
      "271": 8553,
      "274": 8554,
      "279": 8555,
      "replecement": 8556,
      "renting": 8557,
      "gotten": 8558,
      "bookman": 8559,
      "phd": 8560,
      "phoen": 8561,
      "correction": 8562,
      "gasohol": 8563,
      "factorial": 8564,
      "646": 8565,
      "642": 8566,
      "6435": 8567,
      "334": 8568,
      "3300": 8569,
      "80000": 8570,
      "444": 8571,
      "insured": 8572,
      "adn": 8573,
      "lateral": 8574,
      "diametrically": 8575,
      "loop": 8576,
      "edits": 8577,
      "imm": 8578,
      "immers": 8579,
      "##issions": 8580,
      "##ordinary": 8581,
      "397": 8582,
      "pension": 8583,
      "997": 8584,
      "9927": 8585,
      "combining": 8586,
      "319": 8587,
      "billiard": 8588,
      "singh": 8589,
      "singing": 8590,
      "dividingthe": 8591,
      "transformation": 8592,
      "transfers": 8593,
      "projectiles": 8594,
      "branded": 8595,
      "destiny": 8596,
      "exponent": 8597,
      "##ramid": 8598,
      "433": 8599,
      "4300": 8600,
      "avrg": 8601,
      "nonzero": 8602,
      "clockmaker": 8603,
      "clockwise": 8604,
      "processes": 8605,
      "quantifying": 8606,
      "janitor": 8607,
      "dimensional": 8608,
      "expressions": 8609,
      "384": 8610,
      "383": 8611,
      "##ittles": 8612,
      "airfield": 8613,
      "airfare": 8614,
      "belfried": 8615,
      "consumers": 8616,
      "2994": 8617,
      "rupeeper": 8618,
      "continents": 8619,
      "781": 8620,
      "78000": 8621,
      "winners": 8622,
      "473": 8623,
      "4700": 8624,
      "provided": 8625,
      "quarterof": 8626,
      "6835": 8627,
      "courier": 8628,
      "##lete": 8629,
      "glow": 8630,
      "majored": 8631,
      "stripes": 8632,
      "strateg": 8633,
      "stopping": 8634,
      "occured": 8635,
      "launched": 8636,
      "observers": 8637,
      "jackal": 8638,
      "585": 8639,
      "588": 8640,
      "5800": 8641,
      "578": 8642,
      "raisin": 8643,
      "situations": 8644,
      "veranda": 8645,
      "verbic": 8646,
      "specialization": 8647,
      "logo": 8648,
      "7636": 8649,
      "drained": 8650,
      "camer": 8651,
      "camel": 8652,
      "985": 8653,
      "988": 8654,
      "attendants": 8655,
      "attendees": 8656,
      "414": 8657,
      "tempo": 8658,
      "618": 8659,
      "617": 8660,
      "6160": 8661,
      "1053": 8662,
      "axle": 8663,
      "contrary": 8664,
      "812": 8665,
      "goldfish": 8666,
      "portions": 8667,
      "portfol": 8668,
      "desalination": 8669,
      "modem": 8670,
      "modular": 8671,
      "rosebush": 8672,
      "groceries": 8673,
      "696": 8674,
      "trades": 8675,
      "14400": 8676,
      "mainland": 8677,
      "rainbow": 8678,
      "##affes": 8679,
      "sundress": 8680,
      "##opeans": 8681,
      "590": 8682,
      "##inishing": 8683,
      "10800": 8684,
      "appears": 8685,
      "fencemaker": 8686,
      "helon": 8687,
      "helping": 8688,
      "winds": 8689,
      "fixes": 8690,
      "guest": 8691,
      "evaporation": 8692,
      "applicant": 8693,
      "applications": 8694,
      "rani": 8695,
      "administ": 8696,
      "admissions": 8697,
      "buildings": 8698,
      "morse": 8699,
      "streak": 8700,
      "intersections": 8701,
      "winnings": 8702,
      "896": 8703,
      "892": 8704,
      "8925": 8705,
      "watchtower": 8706,
      "864": 8707,
      "categ": 8708,
      "garment": 8709,
      "rails": 8710,
      "variable": 8711,
      "realized": 8712,
      "waiter": 8713,
      "7700": 8714,
      "deduction": 8715,
      "birches": 8716,
      "rds": 8717,
      "chex": 8718,
      "knit": 8719,
      "northwards": 8720,
      "northeast": 8721,
      "coupe": 8722,
      "extraordinary": 8723,
      "imports": 8724,
      "democrat": 8725,
      "945": 8726,
      "947": 8727,
      "eldest": 8728,
      "##toise": 8729,
      "riders": 8730,
      "riddle": 8731,
      "quadrupled": 8732,
      "1908": 8733,
      "moon": 8734,
      "module": 8735,
      "tvs": 8736,
      "supposed": 8737,
      "1285": 8738,
      "technical": 8739,
      "keepers": 8740,
      "cdef": 8741,
      "millions": 8742,
      "1023": 8743,
      "10200": 8744,
      "programmed": 8745,
      "album": 8746,
      "boulevard": 8747,
      "bouquets": 8748,
      "repeat": 8749,
      "recipient": 8750,
      "bowls": 8751,
      "##7514": 8752,
      "shifted": 8753,
      "suffers": 8754,
      "tarun": 8755,
      "layer": 8756,
      "convertible": 8757,
      "##pole": 8758,
      "inspectors": 8759,
      "0673": 8760,
      "transporting": 8761,
      "cells": 8762,
      "cellos": 8763,
      "cellphone": 8764,
      "quarters": 8765,
      "13200": 8766,
      "capita": 8767,
      "assembling": 8768,
      "functions": 8769,
      "safe": 8770,
      "muslims": 8771,
      "progressives": 8772,
      "bounces": 8773,
      "gener": 8774,
      "raja": 8775,
      "rajan": 8776,
      "airliners": 8777,
      "pqrs": 8778,
      "richter": 8779,
      "trekking": 8780,
      "trailer": 8781,
      "trailing": 8782,
      "hillside": 8783,
      "solids": 8784,
      "abhinav": 8785,
      "interviewing": 8786,
      "tabby": 8787,
      "tabulated": 8788,
      "grapefruit": 8789,
      "earthquake": 8790,
      "flagpole": 8791,
      "republican": 8792,
      "southward": 8793,
      "014": 8794,
      "917": 8795,
      "9100": 8796,
      "rebate": 8797,
      "asterisks": 8798,
      "industries": 8799,
      "causes": 8800,
      "durations": 8801,
      "##983": 8802,
      "withdrawals": 8803,
      "kayak": 8804,
      "kills": 8805,
      "madagascar": 8806,
      "puppies": 8807,
      "optimum": 8808,
      "performances": 8809,
      "12100": 8810,
      "3408": 8811,
      "renu": 8812,
      "growth": 8813,
      "violas": 8814,
      "violets": 8815,
      "1271": 8816,
      "eighty": 8817,
      "hindus": 8818,
      "refu": 8819,
      "refill": 8820,
      "refuse": 8821,
      "refinishing": 8822,
      "chopping": 8823,
      "pcs": 8824,
      "paycheck": 8825,
      "occupies": 8826,
      "karan": 8827,
      "karnat": 8828,
      "lana": 8829,
      "nursery": 8830,
      "pyramid": 8831,
      "##618": 8832,
      "staying": 8833,
      "bluetooth": 8834,
      "indicates": 8835,
      "hemispheres": 8836,
      "jean": 8837,
      "discharged": 8838,
      "laboures": 8839,
      "photographer": 8840,
      "fortnight": 8841,
      "drying": 8842,
      "325475": 8843,
      "socializing": 8844,
      "breakfast": 8845,
      "husband": 8846,
      "jump": 8847,
      "malibu": 8848,
      "tiered": 8849,
      "resistance": 8850,
      "resistances": 8851,
      "belonged": 8852,
      "carpenters": 8853,
      "hypoth": 8854,
      "spotted": 8855,
      "happening": 8856,
      "hambur": 8857,
      "mbas": 8858,
      "necktie": 8859,
      "1397": 8860,
      "opposed": 8861,
      "consultants": 8862,
      "purposes": 8863,
      "detached": 8864,
      "ronald": 8865,
      "123456": 8866,
      "18360": 8867,
      "ceo": 8868,
      "liner": 8869,
      "frisbee": 8870,
      "checkpoints": 8871,
      "456789": 8872,
      "smartphone": 8873,
      "insects": 8874,
      "cashew": 8875,
      "boggy": 8876,
      "dawn": 8877,
      "sswh": 8878,
      "watts": 8879,
      "shuttle": 8880,
      "device": 8881,
      "supervisor": 8882,
      "christopher": 8883,
      "numerically": 8884,
      "laboratories": 8885,
      "lawyer": 8886,
      "fabrics": 8887,
      "miscell": 8888,
      "sudden": 8889,
      "sticker": 8890,
      "stickers": 8891,
      "renovating": 8892,
      "eye": 8893,
      "europeans": 8894,
      "skateboard": 8895,
      "skittles": 8896,
      "tiger": 8897,
      "tortoise": 8898,
      "depletion": 8899,
      "shekhar": 8900,
      "academy": 8901,
      "##boxes": 8902,
      "inequality": 8903,
      "inequalities": 8904,
      "voltage": 8905,
      "volunt": 8906,
      "10350": 8907,
      "mechanic": 8908,
      "mechanics": 8909,
      "littermates": 8910,
      "brainiacs": 8911,
      "triathlon": 8912,
      "triathlete": 8913,
      "recruiting": 8914,
      "recruitment": 8915,
      "photocopy": 8916,
      "photocopies": 8917,
      "debenture": 8918,
      "debentures": 8919,
      "molecule": 8920,
      "molecules": 8921,
      "microns": 8922,
      "africa": 8923,
      "gpa": 8924,
      "treasurer": 8925,
      "tractors": 8926,
      "quickfire": 8927,
      "kilometres": 8928,
      "medicine": 8929,
      "interviewer": 8930,
      "groundskeeper": 8931,
      "reinvests": 8932,
      "fisher": 8933,
      "giraffes": 8934,
      "hops": 8935,
      "hangars": 8936,
      "nagpur": 8937,
      "forgets": 8938,
      "twelfth": 8939,
      "external": 8940,
      "carnations": 8941,
      "textile": 8942,
      "instalments": 8943,
      "breeder": 8944,
      "grandchildren": 8945,
      "thousandths": 8946,
      "catered": 8947,
      "nitin": 8948,
      "##mallows": 8949,
      "shoot": 8950,
      "intends": 8951,
      "champion": 8952,
      "integrity": 8953,
      "peoples": 8954,
      "444444": 8955,
      "implemented": 8956,
      "gardensquare": 8957,
      "beneficiaries": 8958,
      "enterprises": 8959,
      "aquarium": 8960,
      "afford": 8961,
      "bonus": 8962,
      "bargainer": 8963,
      "cinematic": 8964,
      "deceased": 8965,
      "dhoni": 8966,
      "esha": 8967,
      "hokey": 8968,
      "jkl": 8969,
      "judges": 8970,
      "jamshid": 8971,
      "kiwis": 8972,
      "kindergart": 8973,
      "maggie": 8974,
      "miami": 8975,
      "nhai": 8976,
      "nigiet": 8977,
      "ocean": 8978,
      "pulses": 8979,
      "pocket": 8980,
      "publish": 8981,
      "seperate": 8982,
      "sauce": 8983,
      "sikhs": 8984,
      "tethered": 8985,
      "vowel": 8986,
      "vulgar": 8987,
      "yankees": 8988,
      "yahya": 8989,
      "toffees": 8990,
      "attends": 8991,
      "atriangle": 8992,
      "pramit": 8993,
      "proudstar": 8994,
      "manhattan": 8995,
      "beauro": 8996,
      "anticipated": 8997,
      "reeya": 8998,
      "asphalt": 8999,
      "convinced": 9000,
      "diferent": 9001,
      "2535618": 9002,
      "amoung": 9003,
      "ammonium": 9004,
      "marshmallows": 9005,
      "distracted": 9006,
      "integerskgreater": 9007,
      "bronze": 9008,
      "unboxed": 9009,
      "unoccupied": 9010,
      "scuba": 9011,
      "scramjet": 9012,
      "outstanding": 9013,
      "agricultural": 9014,
      "envelope": 9015,
      "blindly": 9016,
      "appropriate": 9017,
      "machineaproduce": 9018,
      "taxpayer": 9019,
      "douglas": 9020,
      "phoenix": 9021,
      "immersed": 9022,
      "billiards": 9023,
      "strategy": 9024,
      "verbico": 9025,
      "portfolio": 9026,
      "rosebushes": 9027,
      "administrator": 9028,
      "karnataka": 9029,
      "hamburgers": 9030,
      "miscellaneous": 9031,
      "volunteer": 9032,
      "kindergarten": 9033,
      "012": 9034,
      "098": 9035,
      "734": 9036,
      "830": 9037,
      "925": 9038,
      "930": 9039,
      "936": 9040,
      "915": 9041,
      "aart": 9042,
      "auction": 9043,
      "alex": 9044,
      "ber": 9045,
      "bell": 9046,
      "bren": 9047,
      "bones": 9048,
      "cs": 9049,
      "cx": 9050,
      "core": 9051,
      "cather": 9052,
      "cement": 9053,
      "cels": 9054,
      "dd": 9055,
      "dv": 9056,
      "dart": 9057,
      "dices": 9058,
      "dots": 9059,
      "daw": 9060,
      "ef": 9061,
      "faren": 9062,
      "gum": 9063,
      "gun": 9064,
      "gone": 9065,
      "gather": 9066,
      "gosh": 9067,
      "giant": 9068,
      "hip": 9069,
      "hires": 9070,
      "haired": 9071,
      "ian": 9072,
      "jon": 9073,
      "kph": 9074,
      "kish": 9075,
      "kany": 9076,
      "kola": 9077,
      "lar": 9078,
      "lill": 9079,
      "lice": 9080,
      "lagg": 9081,
      "lovel": 9082,
      "mx": 9083,
      "ment": 9084,
      "mand": 9085,
      "meena": 9086,
      "mnts": 9087,
      "nil": 9088,
      "nell": 9089,
      "nose": 9090,
      "nches": 9091,
      "ore": 9092,
      "oak": 9093,
      "oab": 9094,
      "ple": 9095,
      "pag": 9096,
      "pitch": 9097,
      "qn": 9098,
      "rt": 9099,
      "rit": 9100,
      "ras": 9101,
      "rum": 9102,
      "rak": 9103,
      "rib": 9104,
      "som": 9105,
      "song": 9106,
      "sant": 9107,
      "soy": 9108,
      "saff": 9109,
      "somet": 9110,
      "tay": 9111,
      "tang": 9112,
      "tag": 9113,
      "vish": 9114,
      "vows": 9115,
      "veena": 9116,
      "volley": 9117,
      "wx": 9118,
      "wagon": 9119,
      "wakes": 9120,
      "wires": 9121,
      "wizard": 9122,
      "wgt": 9123,
      "xs": 9124,
      "yy": 9125,
      "zo": 9126,
      "zon": 9127,
      "##eesha": 9128,
      "##tz": 9129,
      "##top": 9130,
      "##ae": 9131,
      "##list": 9132,
      "##spaper": 9133,
      "##yl": 9134,
      "##yd": 9135,
      "##yard": 9136,
      "##ran": 9137,
      "##rom": 9138,
      "##rist": 9139,
      "##rose": 9140,
      "##raries": 9141,
[...]
