[PAD]
[UNK]
[CLS]
[SEP]
[MASK]
!
#
$
%
&
'
(
)
*
+
,
-
.
/
0
1
2
3
4
5
6
7
8
9
:
;
<
=
>
?
@
[
]
^
_
`
a
b
c
d
e
f
g
h
i
j
k
l
m
n
o
p
q
r
s
t
u
v
w
x
y
z
{
|
}
~
¢
£
¤
¥
ª
«
¬
¯
°
²
³
´
·
¸
¹
º
¼
½
¾
×
æ
÷
ø
œ
ƞ
ƫ
ɵ
ʼ
ˆ
δ
θ
π
в
е
с
т
у
–
—
‘
’
‚
“
”
„
‟
•
…
′
⁄
€
₹
™
∆
−
∗
√
∝
∠
∪
≤
≥
♠
🙂
##e
##t
##a
##l
##s
##0
##5
##y
##r
##i
##n
##g
##m
##8
##6
##2
##1
##4
##7
##k
##b
##h
##o
##d
##j
##x
##c
##u
##p
##w
##9
##v
##3
##f
##q
##z
##у
th
the
##er
of
##in
##at
##es
##nd
in
is
##re
##an
##en
##ed
and
##on
##ar
##al
to
wh
##or
##ou
##it
##as
##il
##et
##ing
##om
##ch
##um
##ent
what
if
##is
##ow
##ec
per
##ain
##00
at
##ic
##el
pr
on
are
##iv
##th
##ers
##os
##ion
##im
##ge
##ay
##le
how
##id
by
man
st
##umb
for
numb
##ill
tr
be
##ir
it
##ver
##ol
that
##am
##ut
an
##ac
##est
##pe
##ig
many
##our
re
number
##av
rat
##ter
##ach
##age
pro
##st
10
##ect
##ul
fr
##ear
##ak
rs
km
fin
hour
tw
##cent
will
##ice
day
year
bo
wor
percent
com
##ly
##qu
sh
##ad
work
##ce
al
aver
spe
##ur
can
average
two
was
he
##ith
##pl
find
12
from
20
then
speed
##ore
##nt
each
##tain
than
##ot
as
tim
inc
con
##tal
total
one
##all
train
days
##io
##igh
##ld
##ong
##ive
15
##ist
int
##ater
with
##ud
##art
price
##eg
##ue
##op
do
his
##un
tak
we
ratio
pl
##ount
##ond
##ame
sec
##ess
##and
di
##ct
years
mu
same
##ost
ch
le
div
##ents
sum
##ould
ex
##us
##reas
or
##ation
##are
##ity
mon
hours
##ight
rate
stud
##ave
##ere
integ
time
##ph
long
rem
##act
car
min
sal
##oss
mil
##eng
second
##em
30
its
25
comp
##ast
all
am
val
cost
more
res
##ks
##ell
##ass
met
remain
##ther
have
##ab
##ely
leng
##ip
50
length
has
40
##ang
cer
when
equ
water
there
certain
ne
##ound
sol
##ib
fir
numbers
run
##ich
##fter
##osit
first
inter
after
mar
increas
value
##een
##ant
100
hr
bet
which
su
dist
were
##ween
between
cl
##ure
##der
##oc
##ning
##ff
prof
co
##ate
trav
students
##ance
area
##ag
much
divid
minut
##ap
cm
profit
gr
equal
60
cu
they
jo
squ
ar
interest
ap
##ix
kmph
##ult
amount
their
##ine
##pect
month
miles
##ey
##get
cr
##du
me
travel
dr
##plet
produ
##ank
complet
16
take
##ome
##ary
po
would
##her
kg
##dd
minutes
##000
distance
sell
respect
square
em
mix
##ular
11
gre
##se
inv
posit
##pr
other
##ible
14
age
dig
divided
18
integers
part
##ets
de
weight
##ece
##ively
digit
invest
pa
##ard
##oy
she
##ence
diff
ann
respectively
pi
##gether
##ide
rect
rectang
positive
differ
both
##ish
prob
start
together
fe
##son
##ace
##ility
contain
seconds
##rect
cross
##irc
##ack
##ions
probab
so
person
not
##int
probability
tank
qu
fill
less
times
did
lit
dec
integer
cub
circ
##ies
remainder
add
##ual
##ok
meters
mak
##ose
##ov
##one
24
red
##ire
does
13
bu
000
##wn
##ys
##les
##count
br
##xim
un
sc
45
this
sold
new
ro
##eter
running
##oll
##any
ear
pass
##ploy
employ
##gh
op
##ment
men
19
pe
had
36
##ick
te
##ution
company
wee
dis
least
class
sp
out
go
point
ag
week
complete
##ople
them
80
sim
wal
ever
money
her
divis
product
##ven
people
bus
##ple
##ream
every
who
must
200
but
sm
takes
##ens
up
##od
remaining
direct
increased
##ail
us
incl
35
##ture
cons
end
mach
##ors
##orm
feet
employe
##ough
hal
no
##ft
solution
mixture
pay
salary
small
en
##uring
##res
bl
cand
should
##ock
##ile
half
const
fl
##ree
cover
last
75
discount
##ort
only
alone
##tic
pur
working
rece
##own
appr
mult
appro
##ulation
exact
##ates
earn
play
##ird
##other
approxim
##arg
box
paid
such
70
##ax
difference
##ches
marks
rectangular
exactly
##ild
##pt
walk
pop
21
ball
##chas
purchas
ab
artic
##ade
constant
income
fi
twice
ac
percentage
third
##uc
##eld
vot
##inal
##eters
job
par
poss
ob
##ats
##form
orig
17
finish
population
contains
possible
off
##ep
##ale
##ane
while
90
##aint
sales
another
##ples
sur
employees
rest
you
##ans
over
##ie
candid
original
runs
cap
side
##ry
months
mean
22
old
greater
divisible
rad
##esent
sale
sel
##posit
mark
annual
select
these
##emb
##ives
120
kil
simple
paint
store
el
##ated
##olum
row
sch
boys
into
make
share
rand
increase
##ately
random
unit
during
get
added
##og
##oks
left
pound
selling
##ages
machine
tax
decreas
score
set
##tr
plat
##oup
##action
direction
volum
crosses
radi
compound
ass
##stream
student
32
col
books
##usive
##ces
##ren
##ous
milk
65
cent
##aving
platform
mat
cor
group
piece
rectangle
ma
gall
se
##irl
circle
annum
##ition
inclusive
article
gallon
team
500
high
bas
tri
##ool
reach
school
radius
fact
28
him
ty
fraction
whose
even
trip
still
##way
any
00
wid
different
##co
approximately
##ides
##ection
48
down
##ither
boat
wom
mov
ret
##ward
sells
##iness
girl
##ke
##ull
business
votes
##ived
selected
digits
cy
##ime
##ined
##ought
field
thr
##ares
volume
gain
##imeter
150
opposit
inches
multi
opposite
larg
##ical
liters
city
##urre
taken
##ra
form
shop
42
child
trains
##ied
town
300
##read
kilom
three
height
present
result
##ind
comm
increases
obtain
need
pipe
##erv
##ister
invested
##hn
##ange
john
triang
requ
cube
fo
sl
##wer
memb
cars
room
full
sub
made
filled
##able
55
##ues
##iz
been
##enc
##ines
meet
great
order
72
gets
##ired
units
balls
ind
##hol
##cess
##aced
##fore
##met
perimeter
##iven
##urrent
sides
line
prime
makes
bought
far
beg
used
##fer
##ows
comput
pounds
loss
way
##port
back
##ial
women
current
##ithmet
meter
arithmet
greatest
##ants
arithmetic
##ject
ages
##cl
##ord
among
##xt
reg
triangle
##arge
empt
26
##ics
now
pat
##te
next
##allel
traveled
parallel
23
li
##nds
received
##ower
stop
earned
capac
##urn
monthly
given
##ars
spent
addition
bread
stock
purchased
girls
sq
pair
weigh
buy
before
blue
##illion
item
costs
meas
capacity
##ient
##ination
ent
ra
##day
could
##rib
##pend
dou
##ecut
27
bec
along
smallest
kilometers
took
##ite
stand
##aves
minute
travels
##erm
quest
doub
home
##red
toward
required
##oes
repl
alco
reduc
alcohol
##oth
##inning
reven
breadth
points
additional
54
round
##ments
produce
pre
station
##ps
bag
##ins
1000
pole
maxim
##ouse
width
##tt
rent
workers
metres
eng
walking
got
own
gallons
members
600
where
place
199
##ecutive
maximum
bott
exam
traveling
some
type
cal
sw
empty
card
400
candidate
computer
either
##uct
##vers
mixed
entire
reduced
house
ans
85
children
obtained
oun
race
##per
includ
##stom
book
custom
hand
perio
dra
surf
period
test
fem
def
cubes
downstream
wr
##als
consist
doll
stream
##ove
multiples
surface
##ourn
inst
candidates
calc
journ
journey
million
leaves
consecutive
ju
fu
ph
##idge
started
litres
cubic
circular
bridge
green
correct
ev
##gs
##imeters
partic
good
rec
son
##man
investment
gas
tom
driv
base
factor
calcul
due
##ames
64
apples
account
cister
right
##ts
##ric
##ise
cistern
worked
open
math
33
##ams
##ped
##icket
answer
speeds
list
cont
##nings
four
persons
##tract
56
##rees
starts
##eper
moving
800
wall
##ting
44
white
works
decreased
52
ins
##omes
multip
centimeters
ad
later
##ips
dep
dim
##old
##agon
covered
larger
exce
completed
34
whe
quot
##uary
##vel
travell
manag
parts
bor
diam
machines
lo
ed
cloth
squares
female
##ia
##aster
##ickets
beginning
mile
im
wide
head
whole
marb
buys
boxes
towards
##vi
repr
surv
term
ounces
dollars
odd
worth
diagon
assum
pack
##iss
drawn
quotient
##ead
##ner
retail
pap
being
directions
##aneous
put
saving
##ger
##out
##amil
flo
faster
post
penc
distrib
pencil
##air
##ape
truc
##ipes
profits
count
large
##so
also
##ultaneous
simultaneous
upstream
food
exceed
famil
##uf
manuf
charg
##ference
manufact
250
savings
build
##ordin
##80
factors
39
pens
plot
smaller
purchase
farm
99
##iture
read
140
goes
diameter
tel
coordin
again
park
##keeper
revenue
bi
pipes
serv
##owed
##ake
sug
##press
goods
divide
found
let
##if
##osen
comb
apart
replaced
simultaneously
31
ru
##atch
##iles
46
xy
frie
shopkeeper
youn
bill
cas
land
mph
road
customer
rates
may
##imal
teach
election
wheel
med
siz
##ign
180
cyl
through
coll
##ball
floor
act
male
##ert
##inder
##oses
largest
fuel
multiple
62
having
sing
##ners
##imum
dividing
pays
compounded
pol
##ee
ang
plan
##ian
chem
randomly
inch
##lege
trans
choc
longer
##anges
liter
passes
elect
college
pairs
chocol
jar
##ve
minimum
110
receives
project
players
tickets
vess
equally
arr
160
brand
##olled
reaches
vessel
deg
##50
chosen
##ared
grams
products
regular
nor
##utions
240
approximate
##ub
##aved
survey
family
37
cut
dest
exp
investing
##led
##ram
##ium
decimal
ago
cards
43
av
vis
circum
above
becomes
pencils
63
non
##ures
placed
clock
employee
marbles
paper
low
process
leak
quant
actual
destination
cop
gard
##uit
##ices
salt
metre
cricket
invests
return
consists
travelling
yard
##ided
track
##quid
worker
1200
equation
liquid
measure
borr
##ink
boy
##ocks
covers
cups
depart
5000
jan
jane
tree
##ced
those
##ating
expend
engine
cond
##ket
completely
annually
question
questions
sugar
##fth
##esh
##ital
prin
charges
garden
ve
plane
excl
decrease
##raph
size
visit
tiles
yearly
plus
marked
inde
games
pum
##oline
rev
pool
going
rows
swim
gasoline
dimens
pond
tas
alloy
around
single
expenditure
vill
##20
shir
##plied
starting
fifth
final
ship
express
oranges
neither
divisor
articles
subtract
including
ele
id
##au
##nel
walks
juice
country
2000
##cle
##ission
truck
combined
38
##eans
top
##itt
level
orange
opened
air
sy
##ently
##aces
scored
color
slower
66
96
bel
fenc
produces
needed
49
went
##10
##akes
values
consum
widget
foot
circumference
lowest
exclud
village
29
sam
sand
##ier
125
dogs
sup
passeng
items
double
calculate
represent
cycl
assuming
january
gives
jun
##hip
typ
driver
rupe
95
ke
lib
saved
##atur
deep
formed
coordinate
900
cents
fail
past
##up
##acter
study
respective
contin
fourth
cylinder
dimensions
task
78
84
##aps
expens
win
taking
interv
amounts
container
oper
multiplied
distribut
chocolate
47
del
oil
six
##arter
prov
360
older
getting
particip
##oured
##olog
shares
spend
##ations
partners
quarter
higher
highway
ident
68
bank
cour
lent
pure
trees
##let
##rary
##ior
##ator
##ities
##uts
##acks
proport
instead
ge
hot
loc
##atics
##osed
##imit
spends
cook
previ
particular
previous
cre
hors
limit
##fect
##aries
print
charge
decided
against
borrowed
subtracted
pages
ride
once
chemist
independ
library
##ology
sph
innings
perfect
mary
suc
teacher
##augh
fast
gl
oc
sect
##ield
fruit
comes
drive
drop
litre
offer
market
maj
##uction
mathem
service
bacter
lines
mr
str
change
ways
stopp
standard
managers
diagonal
proportion
occ
mathematics
ban
la
section
und
##serv
##ience
ste
without
deposit
##ysics
observ
needs
jack
loses
riv
##ling
init
##ective
remov
##anged
walked
bottom
initial
58
82
shoes
identical
cast
lost
poured
##ik
##ather
##ony
spec
usual
black
receive
horses
57
cle
lab
rou
rice
factory
younger
below
bacteria
stoppages
67
700
den
game
##lish
##crib
##ales
prices
##ellow
10000
enr
acc
rais
cows
##aur
##hic
stra
##oci
coff
joined
##tend
edge
vehic
rupee
mot
sit
##ever
##eces
##ivid
using
individ
coffee
individual
8000
bats
call
hold
jeans
net
table
ver
##br
##ores
##owing
##olutions
##urs
plant
grad
pieces
buc
capital
measuring
standing
revenues
friends
special
har
log
rep
finished
resulting
department
chemistry
route
eff
mer
your
yellow
##tion
##bs
##ping
areas
passed
restaur
driving
76
wages
equals
completes
earns
defined
defective
success
my
##ked
##ory
##avor
weighing
physics
terms
biology
53
give
##ms
##40
##ina
##anas
##ivers
drain
included
degrees
expenses
cam
##ux
mang
##ferred
english
removed
98
fish
near
unt
##na
##pond
##erry
attend
##plic
fewer
root
tea
uses
thrice
path
median
quantity
sandy
sphere
straight
41
87
max
spr
tem
wire
##ature
electric
river
motor
merch
until
61
wants
yield
##elf
105
##egraph
rob
associ
common
owner
writt
retailer
telegraph
collection
fencing
written
range
##enth
however
##apes
grapes
uni
played
examination
cookies
vehicles
batsman
jul
sign
cod
##agg
earnings
commission
bottles
failed
ax
ft
norm
##ron
contr
dog
shirts
excluding
81
away
gold
port
ram
##ters
##ob
bob
##use
##ocer
member
distributed
bananas
sem
sets
##put
toy
joins
sport
output
210
overall
stations
widgets
temper
##25
##ival
join
seats
teams
loan
revolutions
independently
4000
51
des
er
mod
rose
##kets
##zz
leave
excess
grocer
##oke
customers
heads
angle
passengers
normal
69
tun
##uate
##ons
trad
prog
inters
costing
144
blank
abs
farmer
merchant
dan
pet
##men
##ched
chips
reduction
130
weekly
discounted
kilog
weighs
cyclist
##agged
father
pick
tagged
##ried
##ift
##oad
##ese
##ilater
1500
cho
grade
scre
science
enter
center
##indr
register
participants
6000
deter
main
rain
tin
##aff
##cip
##ari
att
##ici
tracks
sund
jog
produced
febr
##ailable
candy
office
diagonals
available
princip
registered
february
bal
mid
rel
use
##ror
##gest
state
apple
pizz
feed
univers
overt
handed
wrong
blankets
university
cats
eat
##ope
##omb
lengths
employed
currently
dropped
restaurant
59
face
fren
##inish
108
##urer
appe
drives
cycle
rented
correctly
nearest
88
big
fence
hel
turn
wind
##ances
##ables
club
devi
basket
280
letters
provis
3000
fur
fix
gu
##ike
##60
##ved
##ero
##ash
concent
##apor
ground
kgs
sod
originally
matches
kilometer
subject
doubles
evapor
manager
dividend
tunnel
dail
eg
light
mom
##ges
##ws
speak
increasing
##ured
applic
party
deal
player
##ember
exceeds
##aught
##ilateral
sunday
daily
five
nuts
peter
rh
ran
wa
##ust
today
##oles
##ists
exper
##ulty
paise
198
rah
doubled
adm
diminish
manufacturer
building
local
moment
bul
done
mor
night
ox
##ty
##head
##enn
stre
fresh
chair
##ement
drove
circles
painted
calculated
yards
pump
successive
intersect
fil
roll
sun
thus
##esents
wholes
##tern
##stem
board
cans
remains
gross
containing
##odity
commodity
stops
hands
elements
system
portion
bed
bow
bak
dice
dish
james
mich
natur
pal
winning
##ah
##uce
gra
joe
making
decreases
friend
mangoes
natural
bud
dem
nick
##ration
##eral
##ative
##iction
##pected
payment
vote
##cover
meeting
tele
course
absent
89
watch
##med
##ason
##ings
shape
clim
##ockets
slope
swit
install
represents
major
sprockets
budget
don
foll
jill
polled
roy
##els
carp
valid
350
cash
enrolled
temperature
french
further
74
86
cat
est
fet
gar
rail
vari
##ef
##oid
##ath
trape
profess
coin
season
woman
consisting
answered
distribution
partnership
trapez
bar
fac
hard
hence
won
##ause
true
##amps
real
report
march
married
like
because
phot
##velop
##ife
uniform
contrib
wait
diminished
77
ded
late
pm
sen
##rams
##by
##ders
##igible
soap
offic
##tra
basic
##ucted
ounce
edges
engineer
help
applicants
92
germ
mond
sin
wife
##ro
##dy
##aluate
##itte
##icy
##icks
##ident
##cept
contract
chr
char
drink
constr
highest
committe
parallelog
1996
evaluate
manufacturing
##cribed
error
maintain
rahul
monday
bir
num
rd
tap
##ri
##zen
##isa
numbered
450
volumes
event
under
camp
trader
principal
caught
##yg
##ont
##iday
stamps
12000
che
arun
##ddy
flour
##ption
able
320
match
480
moves
throw
preferred
bottle
travelled
printer
consumption
continues
hotel
sector
bicy
fall
kn
mtr
overs
sep
inning
##icient
asked
reserv
assume
bike
north
avg
determ
balance
eggs
separ
ahead
bound
cou
lad
soc
##hi
##30
##inct
##ots
leaving
extra
equival
distinct
##ocr
gains
inside
import
degree
condition
football
bucket
kilograms
##ombus
rhombus
equivalent
gave
hor
power
well
##ties
##cy
stere
##istina
salaries
solve
investments
scores
750
seed
tomat
offered
steve
parallelogram
fig
##bo
short
allow
distric
cup
classes
production
block
acid
computers
region
replac
reading
collect
electron
provisions
wholesale
democr
officers
94
billion
eld
sat
##to
##hop
##36
revers
distances
flat
eligible
assist
types
planted
harry
july
street
faculty
bat
bre
dav
most
rid
satur
##ries
##oo
##erical
staff
chick
weights
reduce
example
depth
##igned
returned
operation
stroke
sitting
wrongly
fixed
palindr
david
05
83
catch
jose
lot
leg
nd
none
veg
##ss
whom
##eck
##iving
##adr
leaps
hrs
cla
quadr
190
##iew
raise
trucks
coordinates
cases
police
expression
june
glass
initially
deviation
railway
variet
trapezium
committee
birth
favor
gear
mo
tv
wage
##iors
##ming
##cm
##cf
##its
beats
dozen
clos
mixing
purchases
170
record
supp
##icians
jogger
windows
democrats
lcm
males
mike
rocks
##dle
##ug
##chn
##elly
within
##oph
itself
grass
deer
brad
broad
directly
##respond
voters
correspond
females
teachers
deepak
geese
deposited
denom
vertic
axis
evaporated
graph
##covered
elder
79
hect
##cer
bond
128
places
positions
deb
techn
division
radio
corn
measures
just
multiply
youngest
copies
visitors
keep
interval
occurs
attem
hy
hist
jim
mel
##lic
##ya
##ny
##35
inlet
##alth
tou
toss
stat
##ament
kms
ash
position
note
abc
220
draw
baseball
marble
##ublic
surveyed
copper
calls
gradu
bulbs
attempt
cd
cur
hall
hik
mill
save
tues
##ael
##side
##gan
##of
##oir
##jay
##alties
pres
##ider
102
##aded
15000
summ
expected
metal
##ipped
112
paul
135
covering
plays
painting
##rah
subs
become
rounds
dollar
program
pizza
appeared
turned
subjects
films
michael
royalties
reservoir
replacement
hectares
tuesday
ferry
lind
lower
tall
ticket
##az
##rass
##fr
##ecks
##osp
howrah
stocks
##ires
##vert
hourly
word
##egrass
solutions
notes
scale
earl
2007
marker
evenly
420
resultant
##hold
began
patna
household
workshop
born
roads
shirt
delux
signal
since
horse
variety
deluxe
fair
faces
lun
lake
might
sib
vi
wed
##ll
##nes
##gr
##16
##12
##oe
##well
##99
##omet
stor
bears
reject
##aks
alb
##ury
126
##phone
2500
##ella
equilateral
proble
brown
brought
butter
object
taxi
colors
reached
rental
chemical
quantities
swims
crew
maxwell
screen
basketball
garage
figure
sibling
bou
east
fre
hare
pace
pink
tip
wickets
##rs
##iya
##15
##venth
##34
##ery
tow
##iced
forest
##amm
repe
##avi
front
fine
compet
compens
165
mixes
##ails
flower
650
buying
bags
fund
recip
case
returns
continu
winner
sixth
middle
bowl
fetched
allowance
earlier
lunch
compensation
ben
fiction
kind
neg
sil
ut
##ress
##75
##ones
toys
##ison
shows
shift
cone
respond
suff
seller
soft
december
seventh
##urred
##ording
1993
packages
parking
proportional
according
buckets
association
dealer
experim
corresponding
silver
lies
lux
nov
page
pony
sister
##back
##ica
##avers
##ula
averages
allowed
closed
##aged
annie
acres
salesman
formula
tests
inscribed
arrives
swimming
passenger
junior
banker
robert
carpet
district
tossed
luxury
bird
furn
hap
hcf
sn
tar
tile
tips
##eit
##cel
isab
tourn
kmh
alread
##otes
trained
organ
composed
1400
paisa
bricks
scoo
outside
move
begin
listed
impress
letter
visited
expressed
sections
denotes
repair
effect
##obile
##medi
climb
catches
estim
legs
vertices
furniture
happ
isabella
tournament
already
scooter
din
jac
lay
pic
rise
tenth
vac
want
wins
##ted
##lor
##roc
##con
##ased
##icirc
altern
convert
##ountain
thereby
##sequ
136
buff
space
ends
paying
taxes
retire
slips
clothes
clothing
package
processing
majors
associates
semicirc
soda
bicycle
soccer
wednes
storage
reciproc
wednesday
duc
daugh
free
map
mother
ravi
zero
##sc
##ood
##po
##erator
##ork
##than
friday
health
intercept
dress
swe
inspect
wheat
immedi
puts
polit
angel
excluded
saturday
immediately
06
ethan
hon
host
hosp
mater
pot
ris
tens
##hind
##por
##ata
toll
behind
come
withd
##unct
web
lem
compon
intern
cristina
1800
fills
bring
outlet
175
270
whereas
transport
chocolates
vessels
660
operating
observation
enroll
raisins
grocery
nicky
senior
hiker
daughter
hospital
material
9000
bur
cell
gm
gift
##73
##ule
##inc
##ilt
##ised
##earch
chance
mins
amounted
1600
few
quart
132
built
passing
enables
capit
sched
assemb
540
##ucting
330
adult
loom
airport
laid
clear
cleared
efficient
maxine
picked
oxen
telephone
photos
##room
linda
repeated
97
aut
cake
funct
hats
jelly
miss
mountain
sa
west
yrs
##rol
##ne
##cles
##pers
##isf
shakes
mus
chose
##ague
sheet
##oker
unch
pean
consider
centimeter
gained
formulation
contest
posted
arranged
finally
shipment
progress
petrol
choice
rele
concentration
satisf
assistant
debt
history
boun
7000
bin
cow
cart
eddy
econ
fle
fly
gen
ice
lives
mol
pen
ry
##55
##62
##key
##heit
##the
##ley
##olts
reun
##ached
heav
chlor
lends
remainders
runner
##aper
crate
partly
2009
about
salespers
225
colour
corpor
requires
230
raj
850
transferred
paperback
actually
pumps
##itted
syr
delhi
spending
undert
jacket
individually
motorists
motorcy
code
semi
normally
admission
oxyg
lady
subscrib
benef
target
ethanol
enrollment
econom
ryegrass
corporation
oxygen
airl
cere
colum
dough
fell
hous
hired
lang
lie
mice
mass
pq
rich
saves
tre
tenn
wood
##ril
##44
##bl
##inks
##inated
##osh
trail
##plom
finds
diplom
carb
april
rod
envelop
flight
movies
results
require
subsequ
begins
stopped
walls
papers
##ified
vend
create
mrs
raised
stereos
riding
rejected
negative
experiment
semicircle
ducks
hostel
unchanged
column
tennis
care
data
hill
oth
tire
##ym
##ipe
##we
##ally
##ils
##icit
beat
beans
show
conference
secured
sums
monkey
solid
firm
partner
broker
aged
flavor
groups
slab
rooms
instr
recipe
charged
rug
destinations
element
cycling
kept
quarterly
lawn
model
handsh
known
tomatoes
attempts
competition
lemon
capitals
langu
others
02
73
fah
lose
mag
pave
roses
till
##non
##21
##vis
thie
##annon
tower
##ilar
##ute
reap
shannon
##anda
lee
##ush
compared
resp
therefore
contained
displ
similar
candies
purple
abh
offers
taxable
##renheit
prep
stationary
owns
maths
adv
##ify
poles
copy
typical
intervals
interview
offering
attended
morning
televis
installment
chickens
favorable
denomination
melted
albert
utility
impression
jacob
honey
assembly
function
chloride
economy
cereal
fahrenheit
08
04
kim
lap
mort
rot
sou
soph
tab
tables
zinc
##ned
##nect
##ooth
too
##orrect
##ille
press
ones
##ests
104
incorrect
changed
coach
grand
grape
meal
meets
develop
decl
decides
adding
earth
weeks
flag
216
6500
triangles
550
260
families
regularly
observations
republic
sports
entered
pizzas
sodium
following
reported
determined
imported
technicians
##ometry
towels
autom
envelopes
handshakes
south
01
91
award
bull
cult
hens
ken
lb
lat
mic
taps
wish
wicket
##nic
##gage
##beans
reb
world
aster
takers
plough
##onds
chess
checks
league
##actions
salad
coins
driven
1100
45000
20000
markup
colony
720
indust
emptied
patch
patio
1997
phone
560
##ific
transaction
conducted
fenced
grades
drains
yields
overtime
majority
separately
boundary
claire
president
picnic
bounce
heavy
vendor
thief
television
mortgage
bc
ca
der
dur
jerry
live
mig
meg
ny
paved
##teen
##70
##98
##fl
##eration
##onest
##alse
rear
##sters
##ulated
conc
doing
dies
reminder
##ocated
149
investor
4500
##anya
2008
playing
selects
stored
decreasing
sea
50000
1991
events
load
##atched
sample
holds
loaned
rainy
bedroom
dishonest
contribut
contribution
maintained
quadrilateral
retirement
##point
angelo
withdra
jellybeans
syrup
slabs
awarded
bad
hamm
kay
kill
mad
mats
mobile
nam
pup
sar
sare
ten
zer
##equ
##roll
##ness
##ba
##ban
##ware
##for
##ful
##alid
##itions
##ases
##ict
ant
ration
prop
##cends
alto
##plane
speeding
incurred
weavers
##eena
art
drum
111
invalid
sheep
cuboid
early
opt
goat
payroll
enough
discounts
##ency
buyer
jug
manufacture
landing
cylindr
planned
suppl
keeper
printing
accom
concentr
sundays
experience
baked
reversed
kinds
climbing
carbon
lemonade
derived
##force
altogether
cylindrical
71
880
cab
gumb
ii
jake
nec
pig
poll
tur
tails
wear
wren
##la
##ross
##gers
##27
##wers
thurs
isos
##arm
perform
perpend
##icular
trous
proper
shelf
alter
alway
121
##ored
plum
plates
leap
mini
completion
134
divisors
smooth
fift
across
schem
thrown
##ize
##ized
answers
write
accounts
contents
340
apartments
432
orangeade
juniors
uniqu
freshmen
boundaries
electronic
veget
birthday
statue
curved
summit
siblings
##celes
alternate
buffal
brokerage
instrum
display
republicans
gumball
necess
thursday
isosceles
perpendicular
always
bio
bolts
fed
fit
fans
false
hu
hen
hear
homes
hatched
mac
maint
ps
ren
##ees
##lap
##ses
##iece
##gin
##graph
##ky
##kn
##bled
##cr
##vin
##fe
##fiction
##erc
##rew
##enance
##orter
##idents
cannel
connect
die
executive
orch
runners
betty
clerical
grow
uncovered
rope
earning
discovered
spir
goose
goats
3500
payments
flies
overlap
30000
fox
lik
became
handled
survived
9999
reads
460
polyg
transactions
nonfiction
consumed
represented
expensive
sixes
label
called
roots
appear
guests
chairs
sunil
beds
climbs
switched
seniors
couples
graduates
households
viol
freddy
birds
dinner
reciprocal
politics
webwe
component
progression
salesperson
trebled
development
asteroid
sarees
concentrate
altered
buffaloes
biograph
maintenance
webweb
09
03
93
cc
cit
came
cream
hat
rents
sle
sided
vel
##tures
##ai
##52
##ging
##ma
##28
##78
##ber
##jac
##ves
##anced
tour
##iters
##ase
##ily
pris
priced
##ership
bee
shall
wash
127
exerc
research
remained
drinks
unkn
disc
2005
2003
suresh
throws
##inders
pattern
journeymen
640
adjac
except
medical
brands
measured
conditions
alloys
##ika
kilogram
dealership
follows
deducted
engineering
tomato
electronics
suppose
problem
molly
airline
duration
diesel
withdraws
##crip
polygon
veloc
exercise
unknown
adjacent
07
ble
band
eight
kate
mut
pint
sach
##land
##ients
##48
##ho
##oon
##90
##32
##atic
##atures
##anies
##ences
##itud
prize
##thing
##ester
##ules
frog
body
coming
##nts
doct
cara
carol
sally
composit
companies
##ells
##aby
cert
cms
apiece
mixtures
grew
145
242
1300
employer
##icky
span
outer
encl
halfway
flow
flowing
flash
purchasing
sex
##cope
subst
##clist
liked
520
fifths
pasture
created
driveway
clean
codes
desk
attached
deviations
admitted
bulb
bowling
switches
professors
deducting
contractor
throwers
determine
separate
stereo
claim
multiplying
notebo
responded
organiz
repairs
vacation
schedule
doughn
subsequently
columns
declared
wishes
fifteen
sachin
##itude
510
aug
cred
dos
gym
hind
jord
king
lens
pare
sent
seg
van
varies
##titude
##lets
##ral
##rog
##drog
##uth
##init
##ati
##ndred
##aron
truth
anth
##igerator
ref
refr
##str
shorter
##ceed
totals
weave
chop
changes
allowing
solicit
interior
138
scul
buses
accept
origin
restore
222
eli
##ograph
movie
impr
servant
arrive
sym
840
deposits
coding
danny
baking
german
construction
couple
reverse
chicken
policeman
glasses
hydrog
continued
sufficient
rises
said
reunion
flavoring
advanced
flags
hundred
prism
velocity
certific
substance
august
dosage
jordan
##initely
refrigerator
hydrogen
780
dar
dot
dive
files
hol
jars
ker
key
laps
mem
nect
pc
rac
rides
spl
sens
socks
teena
vide
yester
##ris
##rick
##gent
##my
##mis
##68
##64
##bor
##ued
##uity
theater
##inum
##atuity
perimeters
bees
beef
##acy
101
##pled
124
204
plate
muff
rememb
mineral
equip
gratuity
app
drank
115
18000
quiz
brother
roh
upgr
paych
blast
walkway
kilos
elvin
radii
assets
324
288
slipped
farther
empties
patrick
1999
someone
inspected
arrived
courses
geometry
occup
steel
labor
graduate
restaurants
spring
choose
detergent
boarders
fetch
professes
drawing
graduating
summer
problems
november
layers
musicians
diplomats
career
hillary
language
smoothie
necessary
sleep
credit
eliot
holiday
memory
nectar
sensors
yesterday
muffin
remembers
upgraded
bomb
gh
kar
lan
los
nurs
py
rank
sul
##ton
##iel
##mers
##61
##ook
##ca
##work
prim
pract
stay
##olution
rein
shoe
alice
##uric
hemis
##allic
lend
execut
##aren
carr
amar
meth
metallic
arc
arts
personal
qual
##ually
brick
unf
##ensity
payable
blu
approximates
212
thirds
captain
selection
shopping
indic
##ially
##ermar
5400
preference
engaged
owned
packet
ready
bills
wheels
literate
revised
elev
supermar
printers
independent
marketing
law
temperatures
joining
daniel
provision
1989
rolls
##board
palindromes
supply
vijay
continuous
estimate
burgers
gifts
adults
peanuts
satisfy
elementary
presses
namely
spirit
labeled
frogs
parents
split
ghee
hemisph
executives
ajay
cale
dut
date
esc
hond
iron
je
kr
kid
mist
mail
oz
tan
tell
wine
xero
yog
york
##after
##less
##sia
##round
##rial
##mod
think
##inator
##rel
##alator
whis
##orge
##ecca
ate
##elle
manus
stem
storm
force
tricky
##utosh
shap
alph
averaged
##ote
intensity
plans
monica
mindy
##anging
thereafter
maria
marath
##apse
crick
dried
parties
noticed
##ovel
2400
roof
employs
36000
disch
spread
halved
flipped
7500
surround
elapse
taxed
3200
matt
seated
289
typed
evening
##wards
##others
1990
1998
recent
sonika
calculating
440
loaded
heading
999
parked
xyz
angles
planes
borrow
departments
typists
location
occur
observes
labour
raises
robot
principle
overtake
overtakes
bigger
mork
intersects
graz
switch
reporters
photograph
christina
falls
ladder
closing
denominator
tough
ashutosh
reservoirs
software
1365
sweets
internet
released
flew
subscribes
benefit
rebecca
industrial
megate
contributed
propos
accommod
pigment
unique
vegetable
likely
biographies
citiz
##berries
##cript
lenses
racing
primes
elevator
duty
escalator
honda
krish
xerox
yoga
whisky
manuscript
stemmed
shaped
alphab
cricketer
cities
eats
ful
gam
giving
hit
held
lts
lisa
ow
pan
public
san
##light
##yam
##monds
##24
##paper
things
##erg
##erb
##eric
##omic
##omores
##isation
##0000
priya
fort
##amal
##ameter
106
boots
shin
shyam
almonds
incur
incomes
conv
155
chip
##ational
carry
suit
dry
invol
pige
fee
containers
deck
brothers
195
192
everyone
noon
parameter
325
central
johnny
losses
life
1992
40000
contact
edit
suggest
##osene
measurements
representing
fails
675
signs
choices
estate
social
collected
break
palindromic
closest
words
##akshi
organisation
motorcyclist
##bler
magaz
sophomores
kennel
supplier
turban
henry
spanish
notebooks
doughnuts
hindi
kerosene
sleeping
practice
marathon
gambler
suggested
coup
dorm
gal
hus
hire
holl
jum
jers
karen
mal
mir
nin
pad
rames
tier
tamm
wil
yol
##tle
##aw
##sure
##gth
##hu
##cumb
##iners
##esigned
inner
##reation
##ena
##itory
##ether
##oms
##ains
prak
##ional
##imet
##iders
stren
stores
stones
forward
##acs
fraz
##aker
willam
shad
shown
##adi
alok
heather
201
longest
carries
amit
resist
residents
never
marla
suv
##ago
divides
grav
cucumb
168
partially
diffic
tankful
cubical
circuit
##okes
redesigned
option
1980
3600
spiders
lasted
224
platinum
assigned
corner
sever
tripled
42000
commute
indu
weighed
replica
rounded
membership
include
wrote
corrected
recently
recreation
##rica
448
quoted
floating
manufactured
625
375
engineers
shipping
belong
rupees
pastry
distributor
george
strokes
casted
individuals
designed
##onses
screws
lights
ranch
mornings
absentee
carpent
numerator
seeds
grassy
hyp
touch
ashok
potat
cello
releases
bindu
flying
houses
responses
prepare
incorrectly
migration
##forcement
plums
instrument
viola
enclosed
flowers
organizations
segment
paychecks
method
alphabet
dormitory
hollow
jersey
mirror
ramesh
tammy
wilson
yolanda
prakash
strength
frazer
shadow
cucumbers
0000
ach
aud
dam
dug
et
gop
gerb
ig
kx
kw
lect
ml
mart
rock
rolled
riya
tied
tons
uba
wet
weld
##lal
##road
##iam
##88
##off
##ji
##ville
##31
##field
##finitely
##ered
##onents
##ald
whale
##outs
##itive
##ilities
ath
beach
animal
finance
shovel
altitude
##ura
##urance
canoe
##plan
##ota
156
plank
secure
orders
##arelal
252
allows
allocated
resolutions
resolution
##abit
100000
cogs
##arded
rectangles
decade
131
scouts
employment
teas
spot
blocks
centimet
cord
towns
heights
commun
7230
backward
regist
lift
prefer
##uctions
gaskets
insulation
insurance
headcount
exceeding
suganya
landsc
cylinders
120000
measurement
condos
indefinitely
participate
participated
observed
rival
casts
70000
holding
5300
mango
julie
toyota
speaks
barb
numeral
cheaper
collector
palindrome
programmers
novels
happen
rising
peanut
undertakes
subscribe
abhay
denominations
coaches
bullet
concert
##points
hammers
cabb
wrenches
trousers
property
connected
anthony
nurses
pyarelal
surrounded
proposal
pigeon
coupon
achie
etc
gerbils
welders
plankton
landscape
410
680
950
bost
edu
ham
hike
lbs
mb
neck
pill
tins
vice
##ek
##ez
##eal
##lon
##56
##rison
##iance
##ht
##ci
thir
thick
##rement
##aler
##iting
##iled
##iliters
##omium
##ician
##icago
prom
##leg
##lex
states
stacy
beavers
##olf
##utical
##teries
109
ships
canteen
##pliance
ascends
increment
totally
died
chap
chicago
extract
growing
joey
army
appliance
dead
death
##aceutical
noted
lesser
139
opp
196
everything
smith
consult
purp
##owners
voted
overfl
markers
shared
united
schools
001
fields
4200
##ervis
555
##izer
ordered
enters
homeowners
replace
owners
entirely
draws
defe
juan
pharm
wallpaper
525
adri
343
parkway
bik
combine
apartment
312
young
medal
medium
action
620
circumfer
pumped
review
delici
provin
6855
very
##plicate
robin
axles
ramu
modified
picking
jogging
egg
1982
##enne
chairman
chairmen
wholesaler
installments
donated
garrison
germs
chromium
construct
fallen
breaks
saturated
technician
abcd
milliliters
prescribed
shifts
layout
reciprocals
missing
binary
wooden
culture
micr
zeros
discarded
solicited
video
hemisphere
ninth
several
boston
educ
pharmaceutical
adrienne
delicious
bh
bars
baby
ci
cind
det
dess
fare
hir
kelly
mumb
mys
pear
ron
rush
sad
sail
sakshi
taught
vict
wov
##mi
##71
##house
##ja
##case
##fall
##reed
##reci
##onies
##arant
##order
##itable
pras
##ivated
##oscope
stone
try
##uled
bog
sharon
heat
123
1234
##nted
totaled
153
door
exist
25000
amith
lenght
afterwards
grows
162
16000
117
183
anne
crossing
##ovan
bruce
spin
agreed
simpl
2006
flips
receiving
approx
overhead
caps
paints
rower
colored
6562
corners
seven
trips
moved
##ically
forms
subm
##izes
patient
854
writing
lists
depreci
imp
survive
390
combination
sized
630
processed
leakage
departs
tasks
shipments
subtracting
consumes
290
continue
courty
puree
cooking
control
desks
rainfall
guarant
bakery
palnted
donovan
sinks
charitable
constructing
cheese
bicycles
districts
gears
attempted
dining
political
transportation
burning
scheduled
housing
richard
automobile
sarah
scheme
gumballs
appearing
tourist
doctors
hundreds
rohan
lender
kids
discharge
methods
00001
cindy
dessert
hiring
mumbai
pears
woven
depreciates
aero
astr
best
bang
bert
bells
ce
cors
dick
efr
erica
fer
fgh
fict
ho
hair
icel
jer
jas
kho
lin
lion
lag
lax
nine
nail
nina
nails
our
que
sed
sus
search
ta
ties
tanya
upl
vo
ville
yz
yes
zoo
##town
##aan
##aired
##sh
##mine
##mint
##11
##45
##bra
##cue
##cony
##uve
##pture
##val
##vied
##eres
##escent
##ndar
##anc
##annel
##anna
##enna
##enuse
whether
##oral
##orical
##iter
##inge
##oming
##change
##chsia
##isb
##icent
##ida
stars
##irrel
##olley
##estra
fringe
frisb
fined
avery
canoes
hex
1210
##otenuse
incand
##istic
##uneration
secures
chart
check
channel
leo
lead
levied
exchange
remuneration
minus
301
resident
##ellite
mets
4016
interch
margin
cole
cooks
joan
jogs
squirrel
applied
crow
travelers
squared
1120
184
189
13000
union
456
disp
disks
goals
walt
2002
2001
smart
populated
ballets
##ucose
voting
jobs
finishes
finishing
painters
elena
compounding
milkman
mauve
baskets
tried
cycles
foil
subway
72000
amongst
patients
liam
275
stands
reducing
preced
handle
fuji
fuchsia
recorder
mathura
333
speedster
insect
border
look
odds
packets
counted
310
mayoral
sizes
planet
planning
transfer
arrival
cuts
copied
questionna
glucose
fruits
laure
570
vehicle
harold
harri
##avorable
camping
julia
descends
modules
balcony
relocated
turns
guy
evaporate
ranj
micheal
demand
cashe
professional
trapezoid
hardcover
waiters
770
germinated
charles
know
mtrs
satellite
batting
##ophysics
historical
touches
millicent
lowered
chemicals
respondents
suffered
snack
estimates
happy
components
looms
satisfied
fleet
general
reunions
diploma
monkeys
typically
cultivated
latest
14916
badmint
kayaks
madison
zeroes
options
schema
federal
heard
orchard
orchestra
mutter
claimed
sculpture
accepted
dark
reinforcement
unfavorable
indicated
supermarkets
calendar
mistake
megatek
citizens
krishan
convey
suitcase
husk
jumps
carpenter
hypotenuse
province
mysteries
prasanna
bogg
simplify
courtyard
astrophysics
corsages
efrida
ferris
fictions
iceland
jerome
jasmine
lionel
lagaan
laxmi
queen
upload
##value
incandescent
preceding
questionnaire
harriet
badminton
580
bake
batch
cp
cakes
da
dac
fes
faced
hers
lions
ltr
living
mess
pun
ss
soci
ur
uph
wat
ware
##ten
##ault
##lant
##lower
##58
##rance
##radi
##iased
##14
##biased
##wh
##wis
##92
theat
##ering
inradi
##anch
##ette
##imals
##olute
1080
fro
frank
william
shut
shot
workman
1250
152
##istics
doc
complex
resort
##eller
##ibles
crates
166
14000
dev
sheets
##ishek
filling
##oves
branch
unbiased
spider
everyday
lasts
centers
seat
triple
007
boatman
slant
##ization
##metric
232
entrance
replaces
1995
calculus
336
diamonds
builds
served
6300
liquids
exclusive
airplane
consumer
support
supervis
##acteristic
provident
printed
succeed
gloves
strik
stew
yielding
1056
signed
intersection
absolute
midpoint
biggest
clubs
concentric
1983
roller
dishes
followed
christ
characteristic
numerical
cheats
reserve
batches
keeps
statistics
millet
butterf
frequ
beginner
buffet
sweater
gmat
considered
languages
abhishek
prepared
interviewed
grandson
migr
pupils
symmetric
certificates
laborator
losing
bluegrass
lawy
tanks
graze
athlet
pillar
sailors
voter
hexagon
interchanging
dacid
fescue
uphill
warehouse
inradius
025
bx
bil
cable
fav
fore
fab
fod
fash
gcf
golf
hn
mis
national
oar
pets
ponies
ring
ros
rack
sud
sink
sari
tie
tiss
tub
ticks
ven
vod
vault
war
xav
##ebr
##lma
##liners
##54
##rt
##iet
##iers
##now
##nually
##ginal
##84
##19
##13
##42
##bol
##den
##was
##fish
##zy
ther
thelma
ingr
inequ
##ana
##anese
andnow
##ontal
##alore
##orn
##asc
##iling
##etle
##oman
##ecked
##eleration
##ims
star
stick
forth
forced
beetle
##amp
animals
##people
##avan
rats
proceed
107
1050
1020
##ulet
##ulif
##aken
workforce
alive
averag
122
208
151
taker
webs
secur
chain
chord
chery
chenna
checked
expect
##phuric
carl
compr
amanda
##asso
metro
##ipts
406
marginal
clou
##ffle
gram
##anka
119
148
142
investors
##oved
245
137
scient
spun
357
endpoints
enable
ensure
flows
75000
receipts
playgr
balloon
abroad
suriya
rests
2200
sharehol
mah
commence
triangular
slate
##izontal
indian
wayne
meteres
capacities
sqrt
buyers
blueberries
raffle
deficit
instant
phil
recliners
560000
5280
packed
counties
990
teles
##iannually
arrange
norway
370
borrows
pumping
dimension
airplan
consume
typing
470
sixteen
spherical
sectors
825
670
denn
specialized
successively
870
wireless
electricity
616
10500
semiannually
512
screens
frenzy
guess
rahim
intersecting
germain
chris
charity
conditioning
horizontal
figures
assistance
snacks
vacant
wanted
dressing
inspector
angelina
quartile
music
carton
cartons
undertook
benefits
subsequent
lapse
sophie
tablets
caulif
nylon
hammer
##equals
wrench
trouser
renov
overlapping
bleach
mutual
pints
composite
claims
improved
symbol
certificate
bombay
sulphuric
arcade
labourer
panel
involved
magazine
gravel
gopal
lecture
achieve
hamsters
mbb
thirty
purpose
aeroplane
bangalore
hole
conveyance
##lantic
striking
butterfat
fodder
fashion
hno
rosy
rackets
tissue
vodk
xavier
ingrid
cheryl
chennai
scientists
playground
shareholders
airplanes
horizontally
380
910
ae
airc
cel
cig
coc
dy
dio
dere
ey
eur
fa
fest
fear
hav
here
haw
il
iod
jut
ll
lock
lau
lanka
mm
mun
maps
mba
nice
pu
paving
pants
qr
races
sk
sri
tb
tig
tail
vers
volts
zach
##einated
##tes
##tch
##len
##self
##ych
##yond
##noon
##gre
##mel
##mium
##79
##hill
##hare
##hib
##habit
##xide
##cd
##corn
##900
##fill
##furic
thom
thinks
##atively
inlets
inhabit
##ret
##rey
##rements
##educ
##onometry
##aring
tor
##ited
##itch
##itish
##asion
##etah
##entory
##isco
##icip
##elter
prior
##iminal
##gebra
##ayons
##idist
manage
ster
trig
trolley
beyond
reem
##tery
##store
franc
shake
shelter
##adem
algebra
##ural
202
2015
timing
conf
totaling
154
wealth
secret
##andise
sameer
ext
expl
extend
##uss
orient
carried
carved
amy
##abad
equidist
watermel
afternoon
##derabad
##apy
interested
criminal
crayons
169
11000
inventory
digging
deplet
##ardment
shek
annivers
probable
quits
timeshare
decaff
decrements
1360
brian
broke
british
uneduc
spoke
bush
smoth
35000
ended
noont
756
753
##owned
##arged
popcorn
academ
178
176
173
##ansion
capulet
assign
cola
basis
282
himself
009
downhill
##raft
4273
slow
##izard
ballsare
234
homework
premium
engines
swarm
bookstore
wrap
writers
calculation
greenville
sons
accounting
opening
listco
567
348
342
managed
managing
county
charging
servings
dividends
3136
462
wheelers
624
singles
arriving
3750
expansion
leveling
airbor
9600
operations
provide
6800
court
locust
fastest
glows
occasion
raising
straw
motel
repaired
875
motorist
merchandise
robots
coded
815
690
6927
related
stretch
filters
michelle
installation
donation
realised
realizes
marching
##dyfield
constructed
committees
numeric
cheetah
oversho
avgof
conditioned
##box
832
quadratic
hyderabad
lindy
albany
experiments
withdrew
##neous
contested
salespersons
##blers
automatic
latter
megaby
contributes
pupil
tenured
anti
supplies
carbonated
performance
instruments
heart
psych
renowned
washing
doctor
chopped
sculpt
equipment
occupied
bombardment
sulfuric
quality
accommodate
accommodated
fully
shiny
editors
paddyfield
touching
potatoes
audrey
igneous
township
registration
barbed
thickness
##legally
extracted
overflow
defeat
circumferences
reviewing
spinsters
pune
sociology
urban
theatres
frozen
frequency
foreign
warblers
therapy
inequal
cloudy
telescope
dennis
aircraft
celebr
cocon
dioxide
derek
faulty
festival
haven
hawks
illegally
iodine
jutting
laund
municip
zachary
thomas
inhabitants
trigonometry
reema
francisco
orientation
equidistant
watermelon
anniversary
decaffeinated
uneducated
noontime
427398
airborne
locusts
occasionally
overshoot
megabytes
municipal
820
940
aer
aaron
bind
binders
drew
fert
furred
gy
gary
gates
gms
jam
jade
jenn
josh
kenn
kamal
lu
lou
lasso
mall
mab
mps
nest
pain
pos
packs
picks
peck
rings
sue
site
ton
tick
upr
vin
vol
vanas
xz
##lie
##ligible
##sp
##ruit
##ranged
##roscope
##nand
##maker
##81
##66
##23
##king
##kamal
##bel
##bac
##ha
##oop
##dant
##joy
##jection
##uores
##pati
##wise
##watch
##woman
##ving
##fred
##zness
thab
thought
thes
##aters
##nda
island
##rent
##retion
##anth
##ense
##edy
##edies
andb
##onse
told
tobac
##itre
##ilizer
##omin
##chan
##umes
atoms
##elets
##ersto
stip
step
stacks
##umbs
##illed
beaker
bearing
##oliter
ananth
rejection
103
frame
willy
willing
comedies
##lyn
##quet
##ada
canada
207
2012
speedsters
cones
weaves
plants
diver
suma
##phants
##phones
salon
3010
2550
compart
compris
valued
resumes
neigh
1001
super
close
clocks
clients
##ocop
cmx
grinder
crumbs
meals
mechan
##seed
deers
##oyd
crossed
litter
decimeter
cubelets
additive
1320
buzness
brain
brass
scot
193
hernand
nothing
nobel
energ
enjoy
blade
flav
fluores
##axy
##ptember
217
171
saleswoman
marketers
selecting
kiloliter
##rency
matter
maitre
send
september
##itional
highlight
bases
basement
triath
triplicate
002
004
003
##ectioner
slip
slides
subash
729
264
##tex
stopwatch
raw
doubling
547
60000
includes
define
jugs
evans
recruit
6420
568
445
adam
countries
395
396
farmland
medals
polly
##eev
angstr
literature
projected
visual
leaked
##eshoes
gardener
visits
shipped
elephants
representative
typist
failure
8400
banking
geomet
geoff
locals
horseshoes
independence
spheres
dropping
diagonally
banquet
understo
steak
8200
575
accident
accidents
verdant
vertex
hari
harkamal
logan
760
530
draining
associate
models
698
trading
traditional
pete
screw
midway
relative
eaten
ranks
diminishes
film
boards
nickel
professor
hardware
photocop
charlie
maintaining
eventually
shortest
acidic
replacing
brenda
closet
records
recorded
debent
keeping
melting
statues
ashley
currency
##ospace
negligible
softball
birdseed
snail
climbed
jaclyn
alternatively
convertibles
sweaters
inspects
internal
quarts
efficiently
contestant
molec
rajeev
motorcycle
motorcycles
response
interviewers
alberto
rotates
rotating
micron
rearranged
kaye
madhu
propeller
pollinated
asteroids
discretion
flashes
chops
hundredth
apprent
laborers
loser
carrots
qualified
jeff
fulfill
gala
galaxy
2017
resistors
difficult
difficulty
rancher
jerseys
centimetre
communities
cabbages
promo
opponents
bikes
education
victory
imposes
linear
susan
frisbees
charts
smartphones
cashews
boggies
mahesh
arrangement
cauliflower
##hibition
sterling
confectioner
extended
bushel
aerospace
fertilizer
gyroscope
kennedy
luke
mabel
painter
poster
upright
vanaspati
thabo
tobacco
ananthu
hernandez
energy
fluorescent
highlighters
angstroms
geometric
understood
discretionary
apprentices
036
735
810
860
af
berry
dm
dear
dinning
fares
fred
gb
gp
greas
hun
hock
jen
jay
jumb
jap
kram
luc
lily
ms
mn
mp
nth
rim
ray
russ
si
tul
treas
tiled
vans
yo
yw
yet
##tlen
##lling
##ios
##iff
##iate
##ious
##gl
##mer
##mates
##be
##hat
##hir
##coming
##96
##94
##zie
theft
##inating
##atis
##ndra
isan
andrew
tolling
##oun
##etically
##child
##entary
perm
aren
##imentary
howm
tract
trout
traff
##ola
##utes
##uted
numbering
ratios
boats
worn
showing
canister
1280
1225
1260
205
2050
##ongs
doors
plaster
diana
lewis
sumit
studies
256
alloc
##elled
405
equipped
grown
interests
drug
147
1480
1440
1430
185
182
weighted
##ardless
probabilities
soon
quick
little
decide
247
24000
1331
roger
classroom
spots
goal
agency
##tured
##orts
211
abel
1728
captured
223
olds
else
assess
bookshop
653
matched
see
sees
reaching
anyone
008
425
422
424
423
kilomet
obtains
requited
regardless
269
reduces
5420
rounding
1994
calf
surfaces
instance
phones
factorization
6400
content
diamond
terminating
postman
465
medic
exponents
conduct
index
revol
idle
20004
385
3840
666
fencin
495
kendra
784
intervie
distribute
distributes
deliv
delivers
identify
glove
occurred
labelled
1000000
repet
effici
efforts
sporting
##ilaterals
attach
window
grounds
evaporates
1988
intersected
donations
carpets
cashier
deduct
officer
8300
quadrilaterals
##fruit
objective
eastward
towel
competitive
utilities
picture
healthy
healthier
international
bringing
fewest
976
westward
##628
rajesh
targeted
pqr
tablet
concurrent
named
cuboids
polling
turtlen
properties
uniquely
birthdays
bleached
rohit
occupy
reinv
unfilled
supermarket
continuously
carrying
magazines
pads
potato
martin
centimetres
community
cabbage
chapati
chapatis
ceiling
searchlight
looking
##where
supervisors
laboratory
lawyers
averaging
security
expects
dyn
wrapped
strawberries
coconut
steps
flavored
dearness
greased
hung
hockey
jumbo
japanese
kramer
russian
tulips
traffic
plastering
turtleneck
710
ai
bb
bun
bab
cock
du
dair
eigh
edd
fis
fel
gan
gir
hue
hop
hang
hint
habit
ir
jol
jones
kit
kath
lid
lets
lov
lane
lub
lacs
lizard
mum
ng
nom
nag
nature
oh
oct
oates
owe
pil
pull
pined
push
rag
sound
sah
tic
tide
tacs
vas
vir
vip
view
wy
yv
zeld
##eer
##east
##tor
##tage
##tail
##time
##tague
##aj
##aes
##aing
##li
##lna
##set
##sel
##scrib
##rants
##rued
##nter
##nies
##nair
##ged
##main
##83
##kon
##bid
##backs
##bits
##hs
##hau
##oiled
##oja
##cases
##ua
##uk
##uum
##unt
##uff
##py
##will
##wear
##word
##95
##37
##feit
##zens
thor
thous
##ern
##erges
ofth
##inery
##atives
##ene
##edent
##onics
##onne
toc
whop
##orist
##organ
##itives
##itures
##itutes
##ili
##iluted
##etizer
##ump
##ument
##entin
##ential
##isy
##isions
##isms
##ecedent
attract
##ela
prave
##thur
##erson
##imour
##aya
##aysia
##leen
forget
forbid
trish
anoop
##aco
##acuse
##igration
reaction
prohibition
##stand
##storm
##ulum
twel
daytime
shore
shower
##ades
##plish
1212
1275
2020
##otion
##otonics
tims
timoth
consequ
158
##egar
##oper
dozens
weaving
plast
##andan
china
chili
extern
exhau
orn
orph
montague
remove
carn
carmen
carri
255
compare
allerg
valve
##elling
##assette
##abai
408
whenever
suzie
clerm
clips
cliff
##uretor
##ocassette
coat
coaster
##apore
equaled
arthur
aptitude
means
pooja
emerges
greg
146
depend
digital
pies
tanker
quentin
additives
246
reductions
unp
unins
unsure
458
soldiers
password
194
peach
365
text
sped
spoiled
outc
themsel
##plement
upon
upto
356
machinery
##oughly
noelle
constitutes
florist
playa
704
poppy
215
214
213
2120
acqu
access
parli
obra
172
221
radiation
32000
coloured
centre
seash
283
fractional
anytown
4800
48000
gaining
former
slump
725
7200
india
faruk
beggin
computation
##clips
268
2310
bluejay
276
272
27000
54000
bottled
examine
somewhere
swiss
emptying
855
bookcases
handling
periods
definitely
instal
juans
##gsley
reckon
drivers
##ricants
##riculum
containg
5600
528
5200
##veland
headed
termite
assumed
papaya
serve
serves
combust
ruined
rugs
collaps
6200
singapore
literacy
435
436
circumscrib
paperclips
equations
expenditures
condomin
questionnair
revisions
swimmer
381
6600
960
490
footwear
representatives
keats
liberal
paste
operated
participant
686
proportions
chemists
glued
string
steven
removes
cleveland
accrued
sits
planting
repay
effective
merge
successful
5358
camels
mangos
nearby
attending
attendance
413
robins
juliet
controlled
8100
##obiles
mode
1442
petri
enterpr
rainstorm
overtaken
594
1087
windbl
sunfl
sunset
baker
dishwas
donald
cashed
variables
barrel
waits
##roorgan
chrome
numer
campers
##ontville
matching
separated
counter
conditionor
cupboard
9421
assisted
breed
breath
ridden
lottery
varieties
closer
recorders
##ophotonics
vertical
12880
jimmy
tosses
curriculum
subsets
rejects
1265
towed
snakes
impressions
happens
happily
vacuum
semicircular
saturdays
honor
materials
mountains
contestants
generic
genetically
colours
syracuse
undertake
carburetor
instructions
magn
advances
functional
pressing
grandchild
declares
automobiles
bullets
microorgan
industry
##ification
antecedent
artist
accomplish
performs
displaying
##ginia
biography
beeh
composition
compositions
kingfish
anthill
improper
darcy
videocassette
equiped
apply
appetizer
karl
ranked
carrier
caleb
mistook
mailed
grazing
megatech
citizen
owlna
malaysia
gravelling
audio
ign
marts
rocket
teasers
registrants
happened
##ezia
promotion
smithtown
microphotonics
educated
capsule
capsules
submitted
guarantee
sedans
sedimentary
taimour
leading
unionized
lauren
laureates
ranjan
ranjith
1491625
daisy
document
stewar
migrating
athlete
fabric
misread
sudhir
venezia
renovated
cigar
lloyd
pugsley
versa
secretary
explains
smothie
psychology
sculptures
laundry
joshua
vinegar
thesph
stipulated
compartments
scott
enjoyed
traditionalists
jefferson
mpg
permission
allocates
assessed
delivering
repetition
efficiency
attaching
dynaco
bunnies
cocktail
duplicate
dairy
eighth
eddie
felt
huey
habitat
jolene
kathleen
lubricants
mumabai
nominal
ohms
pilot
pinedale
raghu
sahil
virginia
yvonne
zelda
thoroughly
thousand
ofthese
whopping
praveen
trishul
timothy
consequent
plastic
exhaust
orphan
carriages
allergic
clermontville
uninsured
themselves
parliament
seashells
beggining
bluejays
reckoned
combustion
collapsing
condominium
questionnaires
windblown
sunflower
dishwasher
counterfeit
microorganisms
kingfishers
980
aa
afore
bs
bent
cum
cage
cater
dall
dun
eating
fat
fut
fired
fellow
fitted
fences
hate
hte
ky
kan
kir
kab
las
lamp
mt
mcd
nat
nit
nets
oars
ping
pow
pong
peng
penn
pots
pasc
raced
rout
rbr
ted
tape
tina
var
vik
wink
yr
##ex
##tling
##aequals
##loe
##larged
##yming
##rb
##iation
##iant
##gar
##gate
##mall
##85
##89
##800
##22
##29
##41
##76
##he
##hon
##har
##hood
##hym
##ding
##dale
##jul
##cing
##col
##cand
##uch
##uins
##posed
##win
##water
##wich
##vil
##vature
##vette
##39
##fo
##fely
theor
##ino
##inion
##inter
##atlantic
infl
##rete
##anite
##onz
##onent
##onald
##arch
##arian
##arily
##alt
##alk
tool
tops
##oring
##itor
##itter
##itary
##ila
##omg
##check
##umulated
whatwill
ifaequals
atthe
atlantic
prade
onto
##thik
##ersely
##ioned
##idate
##idux
stram
stoke
beer
thatbe
##aments
##amatics
anush
anvil
##acement
##iginal
##igner
##igious
recheck
proced
1010
##ected
##ulative
##earound
boils
##que
##quare
sho
shaded
##plies
1240
##tainment
aside
totality
1550
inte
##opes
pla
plain
dip
muse
cherry
chef
champ
chloe
exit
explan
##used
integr
military
amomg
resell
##ablish
502
504
theremain
intercon
intercol
1002
sure
cler
cool
coated
divident
grove
granite
604
ares
producer
sellis
116
113
1125
11628
inversely
1412
186
187
feast
soil
deceleration
##okers
248
243
2442
1350
##ysical
uncle
unsp
unused
newbor
roja
opinion
##mentioned
peo
368
tees
discover
spur
spade
sperical
agree
aggre
herd
200000
upward
355
352
payer
enlarged
##ockout
219
21000
acre
##formation
1700
1760
902
##ainted
salesmen
salespeople
suraj
youth
capable
2250
salepeople
1202
elim
settling
326
corvette
based
triples
287
2800
differential
multiplic
multiplies
formation
formations
presently
##izing
##forejul
compute
262
26000
231
237
2300
stockbr
852
consisted
dolls
funds
physical
recipes
mathamatics
listing
441
4400
4444
52000
ada
advert
lover
cloths
mileage
image
implement
993
serving
469
463
billboard
casino
wheeler
6250
angie
transatlantic
elected
projects
expense
430
gardens
saltwater
##esha
pumice
startingof
topics
292
294
sandwich
dogsled
cycled
cyclic
956
operates
4771
##ationship
##lette
located
cookie
previously
creates
crews
prints
drops
bacterium
banu
banks
undiluted
removal
usually
roulette
acceleration
accumulated
holdings
network
veridux
765
986
987
fishes
examinations
raman
described
designer
eras
eros
tune
entertainment
tiny
religious
relationship
feeding
8800
##asha
rhym
rhyming
admits
localvalue
sunny
winningcand
budgets
cattle
establish
barber
facility
hardback
contributions
waiting
9200
9261
contracts
parallelograms
bicyclist
knockout
determines
rhombuses
942
rider
vegas
1904
corresponds
melts
curvature
1024
subscrip
taller
wedding
storing
freely
sevenths
novel
carpeting
estimation
duck
inspection
lemons
gmaes
##incing
auto
missed
safely
considering
considerable
generation
heavily
23040
benefici
airlines
magic
displacement
##ifying
rotten
##nected
21600
latin
ploughed
concrete
seaplane
loading
sarongs
##equally
1111
iii
miniature
smoothies
vegetarian
necessarily
connecting
spiral
likes
citern
##789
1277
patterns
notebook
organization
doughnut
segments
refers
improve
##borhood
fetching
karthik
stays
carrie
mailing
owing
owning
shining
convincing
involving
gopi
lectures
teaser
barbata
achieved
##legiate
consulting
consultant
overflows
defeated
biker
circumferential
microscope
detected
victor
submit
combinations
dock
succeeding
absolutevalue
christine
favour
favoured
##ascar
chords
comprise
comprised
vodka
vodkas
tigers
torhym
depletiation
shekar
academic
celebrated
louie
tonnes
andbequals
comprising
neighborhood
jayant
howmuch
revolves
ganesh
lovers
octane
wyoming
attracts
ornaments
unpainted
outcome
circumscribes
enterpris
numerals
magnified
ignore
aforementioned
cumulative
dallas
future
kyle
kanul
kiran
kabadi
mcdonald
natasha
powder
penguins
pascal
routes
rbrrb
vikas
theoriginal
pradeep
thatbeforejul
anusha
rechecking
procedure
museum
explanation
theremaining
interconnected
intercollegiate
unspent
newborn
aggregate
multiplication
stockbrokers
rhyme
winningcandidate
establishment
subscription
torhymearound
thatbeforejuly
050
034
920
975
aqu
aff
aven
bd
bon
bis
barg
cin
cave
cfo
dece
ditch
dhon
esh
fn
fan
fing
fog
fold
fountain
gate
gthe
gcd
hive
hok
hose
ill
jk
jud
jams
kt
ki
kinder
kavi
led
lear
lak
lamps
mow
magg
miam
nh
nig
nandan
oce
pp
pit
pul
pock
pub
qrs
rome
rural
ropes
seper
sau
sik
sss
tires
tether
tains
uma
vow
vul
via
wing
woke
wolf
xx
xw
yank
yah
##eenth
##ta
##tan
##tie
##tower
##tective
##line
##like
##lims
##sent
##500
##yles
##rg
##ract
##rics
##rator
##rically
##iard
##iacs
##nat
##night
##nment
##nuts
##gt
##go
##gart
##mon
##mar
##most
##mate
##made
##82
##87
##65
##69
##400
##475
##kare
##kgre
##kking
##bow
##bic
##bur
##band
##berry
##bush
##hid
##oen
##ohol
##dst
##due
##jet
##xter
##cell
##cup
##uations
##upled
##pay
##pur
##pies
##wals
##walk
##vas
##vard
##33
##321
##fers
##fol
##fare
##fast
##fire
##fried
##zero
##erch
##erce
##erica
ofkare
##iny
##ining
##inav
##inist
##ateg
##esis
##nded
incent
##rea
##aning
##anity
##enge
##edi
andrea
##arium
##arified
##alination
toff
##ories
##orated
##oudst
##asons
##etary
##etooth
##etrically
##chery
##uminum
whats
##isks
##isposed
##ecement
##ainer
attain
atte
atri
pram
prorated
proudst
onions
oncoming
online
##ths
##levard
manfred
manhat
stated
sticky
styles
forty
trails
beaur
##vernment
##amas
##utarch
antic
##igo
rex
reey
reena
reasons
rather
protective
fractions
##aka
##akil
twin
twins
booth
worms
##quets
##quake
shade
shots
shakil
alan
alley
alfred
aluminum
##urning
cane
canvas
heap
hema
209
2025
2037
asph
asia
concer
convin
##allenge
training
1510
1560
##ego
##opher
##opri
##unched
plutarch
secs
##andah
diet
diane
difer
diego
chile
chances
chases
chase
changing
challenge
leas
leaning
diving
##uses
##using
orbits
monetary
integral
carla
caravan
cargo
mind
minakshi
##ematic
305
2535
amoun
ammon
america
reserch
##ipated
507
509
503
5050
402
404
##angle
thereof
solar
solved
solves
##ibu
marry
marsh
distract
client
clarified
##occup
##ateboard
##agascar
##apro
gray
605
joel
arb
archery
interesting
##ultural
##dule
##duce
dramas
161
1680
1620
poison
pointer
1136
1170
##seff
181
integerskgre
pausing
sheela
sheila
annika
pie
differences
startup
sox
quanity
decades
addison
2420
1340
1344
bund
brim
brakes
brings
bronz
unbox
unequally
unoccup
scub
scram
scoring
455
soldier
newly
employers
1950
1970
1978
1979
366
tee
dislike
spins
spaces
outstand
government
agent
agents
agric
walnuts
2004
user
payoff
envel
enforcement
blind
candles
appropri
approximation
popular
2100
abe
possib
1720
offence
youseff
overdue
sidewalk
226
2240
markings
1206
paintings
machineapro
taxpay
platys
compounds
65000
gallery
sequ
seating
teamwork
482
retired
returning
thrives
largely
resulted
commerce
slices
55000
indisposed
indigo
265
2600
238
dougl
271
274
279
replecement
renting
gotten
bookman
phd
phoen
correction
gasohol
factorial
646
642
6435
334
3300
80000
444
insured
adn
lateral
diametrically
loop
edits
imm
immers
##issions
##ordinary
397
pension
997
9927
combining
319
billiard
singh
singing
dividingthe
transformation
transfers
projectiles
branded
destiny
exponent
##ramid
433
4300
avrg
nonzero
clockmaker
clockwise
processes
quantifying
janitor
dimensional
expressions
384
383
##ittles
airfield
airfare
belfried
consumers
2994
rupeeper
continents
781
78000
winners
473
4700
provided
quarterof
6835
courier
##lete
glow
majored
stripes
strateg
stopping
occured
launched
observers
jackal
585
588
5800
578
raisin
situations
veranda
verbic
specialization
logo
7636
drained
camer
camel
985
988
attendants
attendees
414
tempo
618
617
6160
1053
axle
contrary
812
goldfish
portions
portfol
desalination
modem
modular
rosebush
groceries
696
trades
14400
mainland
rainbow
##affes
sundress
##opeans
590
##inishing
10800
appears
fencemaker
helon
helping
winds
fixes
guest
evaporation
applicant
applications
rani
administ
admissions
buildings
morse
streak
intersections
winnings
896
892
8925
watchtower
864
categ
garment
rails
variable
realized
waiter
7700
deduction
birches
rds
chex
knit
northwards
northeast
coupe
extraordinary
imports
democrat
945
947
eldest
##toise
riders
riddle
quadrupled
1908
moon
module
tvs
supposed
1285
technical
keepers
cdef
millions
1023
10200
programmed
album
boulevard
bouquets
repeat
recipient
bowls
##7514
shifted
suffers
tarun
layer
convertible
##pole
inspectors
0673
transporting
cells
cellos
cellphone
quarters
13200
capita
assembling
functions
safe
muslims
progressives
bounces
gener
raja
rajan
airliners
pqrs
richter
trekking
trailer
trailing
hillside
solids
abhinav
interviewing
tabby
tabulated
grapefruit
earthquake
flagpole
republican
southward
014
917
9100
rebate
asterisks
industries
causes
durations
##983
withdrawals
kayak
kills
madagascar
puppies
optimum
performances
12100
3408
renu
growth
violas
violets
1271
eighty
hindus
refu
refill
refuse
refinishing
chopping
pcs
paycheck
occupies
karan
karnat
lana
nursery
pyramid
##618
staying
bluetooth
indicates
hemispheres
jean
discharged
laboures
photographer
fortnight
drying
325475
socializing
breakfast
husband
jump
malibu
tiered
resistance
resistances
belonged
carpenters
hypoth
spotted
happening
hambur
mbas
necktie
1397
opposed
consultants
purposes
detached
ronald
123456
18360
ceo
liner
frisbee
checkpoints
456789
smartphone
insects
cashew
boggy
dawn
sswh
watts
shuttle
device
supervisor
christopher
numerically
laboratories
lawyer
fabrics
miscell
sudden
sticker
stickers
renovating
eye
europeans
skateboard
skittles
tiger
tortoise
depletion
shekhar
academy
##boxes
inequality
inequalities
voltage
volunt
10350
mechanic
mechanics
littermates
brainiacs
triathlon
triathlete
recruiting
recruitment
photocopy
photocopies
debenture
debentures
molecule
molecules
microns
africa
gpa
treasurer
tractors
quickfire
kilometres
medicine
interviewer
groundskeeper
reinvests
fisher
giraffes
hops
hangars
nagpur
forgets
twelfth
external
carnations
textile
instalments
breeder
grandchildren
thousandths
catered
nitin
##mallows
shoot
intends
champion
integrity
peoples
444444
implemented
gardensquare
beneficiaries
enterprises
aquarium
afford
bonus
bargainer
cinematic
deceased
dhoni
esha
hokey
jkl
judges
jamshid
kiwis
kindergart
maggie
miami
nhai
nigiet
ocean
pulses
pocket
publish
seperate
sauce
sikhs
tethered
vowel
vulgar
yankees
yahya
toffees
attends
atriangle
pramit
proudstar
manhattan
beauro
anticipated
reeya
asphalt
convinced
diferent
2535618
amoung
ammonium
marshmallows
distracted
integerskgreater
bronze
unboxed
unoccupied
scuba
scramjet
outstanding
agricultural
envelope
blindly
appropriate
machineaproduce
taxpayer
douglas
phoenix
immersed
billiards
strategy
verbico
portfolio
rosebushes
administrator
karnataka
hamburgers
miscellaneous
volunteer
kindergarten
012
098
734
830
925
930
936
915
aart
auction
alex
ber
bell
bren
bones
cs
cx
core
cather
cement
cels
dd
dv
dart
dices
dots
daw
ef
faren
gum
gun
gone
gather
gosh
giant
hip
hires
haired
ian
jon
kph
kish
kany
kola
lar
lill
lice
lagg
lovel
mx
ment
mand
meena
mnts
nil
nell
nose
nches
ore
oak
oab
ple
pag
pitch
qn
rt
rit
ras
rum
rak
rib
som
song
sant
soy
saff
somet
tay
tang
tag
vish
vows
veena
volley
wx
wagon
wakes
wires
wizard
wgt
xs
yy
zo
zon
##eesha
##tz
##top
##ae
##list
##spaper
##yl
##yd
##yard
##ran
##rom
##rist
##rose
##raries
##ius
##iform
##ians
##iji
##nak
##neg
##nold
##nizes
##got
##mo
##216
##72
##77
##ki
##kled
##kesh
##bc
##bod
##han
##hit
##how
##helf
##oom
##ooker
##jun
##just
##xic
##cella
##pany
##wing
##wel
##wind
##91
##958
##38
##300
##fa
##false
##qeesha
##zer
##eret
##inz
##inocer
##incy
ing
##rem
##anu
andy
##ark
##ali
##alin
##alary
toby
##orate
##orked
##orative
##orfalse
##ita
##itled
##itrary
##asian
##omon
##umari
##enty
##isle
persent
priv
pramil
presents
prison
##iver
##tham
##osing
howe
manages
stuff
stalin
ford
forgot
tray
trder
troy
tries
bever
thathe
anal
anil
ants
##ested
##pez
##peared
1015
##ulam
##earge
##aking
##akumari
financ
twenty
boiling
percentages
showed
shuff
shark
workout
aligned
##urt
##urities
heinz
##pling
##plates
1236
1270
1290
1232
2028
eachex
##otron
incres
incurs
conve
##alled
157
1520
1540
1530
1536
1515
##ueorfalse
##uniform
weel
##essa
##essing
mukesh
chased
chains
orr
mona
##erejust
carper
##emplates
306
3034
258
254
2560
allison
amate
valves
resides
metals
##aborate
5020
equities
equalled
neha
solomon
fires
marcella
##dern
coke
##appeared
grab
groom
joint
joelle
aram
arule
arnold
arjun
craz
mexic
producing
completing
164
1650
poet
emits
emma
emerg
emigration
1115
1190
greed
gretz
188
1820
1836
announ
feb
crossroad
notate
notices
quincy
decorative
adds
241
1380
1325
1335
1399
1370
0005
00000
##ysitter
unans
unmar
unlist
451
457
4545
newspaper
##ghurt
opens
1900
1973
peps
361
364
363
disappeared
gotham
805
everest
divisior
##ensions
upsc
upcoming
##oded
directors
358
consecut
halving
blister
blaz
candle
flip
flats
752
purse
walker
walkers
possessing
17000
901
meaning
228
oldest
selections
1201
1203
ella
rowed
rowing
##ognizes
##trueorfalse
323
colonies
bookseller
bookshelf
milked
652
654
657
matte
mahi
maaz
500000
281
2880
2828
005
006
484
489
483
retains
throwing
shops
421
427
##erve
##wered
5500
##encies
726
backyard
regions
267
263
235
236
23000
2340
lif
breads
entitled
##days
2700
2744
alongthe
545
546
549
maximized
gotin
examples
somehow
calories
swati
eithertrueorfalse
8500
85000
childrens
handmade
defin
recognizes
648
64900
accounted
335
3375
contemplates
565
562
561
56000
5625
5660
5648
443
44000
524
527
5250
insert
ade
345
347
349
3400
diameters
survival
flooded
foods
manufactures
392
3921
farmed
992
1404
telug
314
317
3150
3125
collide
collaborate
629
policy
elective
378
434
avearge
6350
nonneg
paperbacks
quantum
departure
revolution
villain
villages
3800
3850
493
##101
##10101
296
sami
sampling
libraries
90000
failing
##upath
##upervis
788
786
782
787
789
845
841
winned
operate
operator
476
##ologist
identification
684
geograph
perfectly
sucrose
strip
strike
strings
banana
laura
jackie
586
583
58000
824
speckled
572
57000
672
friendship
reply
768
539
drainage
camped
manganese
9800
416
8748
sprite
615
612
yielded
axes
axyd
2109
517
5166
erred
erik
ernak
693
6900
tunes
choosing
centered
jogged
balu
overtook
8820
8888
guys
lighted
rhinocer
waiver
1985
streets
freshly
filter
895
891
installed
dont
8640
##athan
barium
facing
hardest
hardbacks
really
waitress
775
deductions
929
charan
maintains
mondays
chewing
knows
reversing
battery
joseph
legged
quadrant
favorite
mohit
modern
recording
recordings
supporter
debby
justify
melt
hikers
preserve
1021
paulson
##ometrist
forested
competing
1657
16500
flowerman
suffering
snooker
impressive
repairing
estimated
alternative
freezer
dresses
064
burger
972
saiji
satisfies
binoy
economics
pqs
trend
woodwind
vending
prepar
lapping
laptop
rotation
1047
killed
sara
optometrist
wearing
fifteenth
sleeper
076
enclose
encloses
cleaning
cleaners
vanessa
kerran
springdale
methyl
indicating
satisfying
jeep
jewel
tanvi
thinking
mariah
proposals
panic
675958
malmo
##awk
2013
beaches
25200
lifts
lifting
preferences
thirteen
microtron
bhavan
bhanu
bhupath
detination
ronit
12345
sevens
impurities
guaranty
guarantees
taqeesha
##111
dispose
dispatch
dispatched
3104
devices
supports
stewart
migrated
athletic
venki
##54321
proceeds
averagge
securities
guesses
eyes
eurasian
extent
extrem
extensions
explain
smothies
17640
assignment
psychologist
sculptor
celebrating
laundrom
jenny
andbase
comprises
neighb
superfruit
treasure
yoghurt
yworked
tractor
kilometre
medicines
conducts
interviews
deductibles
reinvested
babies
babysitter
irin
irwin
pulled
vasim
vasims
tocs
dependent
19413
peaches
acquire
acquired
curriculums
beehive
beehives
thespheret
thespherejust
dunes
oarsmen
pennies
varied
##4181
clerk
18750
3267514
advertise
eraser
folders
learn
romeo
incentives
concerning
arbitrary
poisoned
bundle
immigration
43334
camera
tradesman
category
102325
generated
refuge
hypothesis
fisherman
jklm
aarti
berries
catherine
celsius
dvd
dawson
farenheit
gunny
goshawk
jonathan
kishore
kanyakumari
lilly
lagging
lovelost
mental
mandy
please
pagers
ritesh
rasp
rakesh
ribb
somu
santro
safflower
sometime
taylor
vishal
volleyball
wizards
zonk
##body
private
pramila
financial
shuffled
eachextra
increse
convex
crazy
mexican
emergency
gretzky
announced
crossroads
unanswered
unmarried
unlisted
pepsi
upscale
consecutively
blistering
blazes
maaza
564823
telugu
nonnegative
##upervisor
geography
516615
ernakulam
kerrania
jewelry
bhupathi
laundromat
thespherethat
32675149
020
070
610
740
730
935
912
ak
ace
ave
aust
aunt
ba
bip
bout
bced
bhu
cot
dc
dow
dol
dant
dates
dfr
domin
eesha
fam
fist
file
gw
gic
gok
ha
hut
htt
hoe
iim
ja
jj
jony
jason
jenna
kul
kure
kite
kels
kaz
kitch
lic
lived
lined
loyd
lola
mud
mould
mts
nr
ni
nish
nosed
ol
ou
pent
pud
pant
pine
pins
pavan
pedi
qq
rr
rav
rach
rage
rab
roman
ser
say
sir
sig
sour
sist
sab
sack
soup
sacks
sush
songs
tx
tumb
tony
terry
tells
um
wel
wild
wired
xb
xor
yc
yad
yoe
yeast
zs
zd
##end
##tice
##tik
##tuce
##af
##awn
##aign
##ler
##lan
##low
##lay
##lled
##load
##life
##510
##ras
##rane
##rows
##rise
##races
##rings
##irect
##ifer
##ique
##gae
##more
##mitter
##100
##435
##ker
##kar
##kely
##bar
##ble
##bul
##bies
##bike
##ham
##hul
##have
##hanced
##oj
##over
##oosh
##dated
##jar
##jures
##xy
##xas
##cal
##pass
##pile
##piece
##97
##van
##fum
##funct
though
threes
thele
theres
theother
##erer
##erion
ofa
ofthe
ofboxes
##atric
##atia
##atta
##esaving
##nding
##ndary
infect
inmates
injures
isoc
isthe
##redd
##enar
##ening
##aris
##arine
##arash
whist
##ites
##askar
##ilized
##ety
##eth
##chem
##charge
##chorge
##entially
##isec
##isement
##ecour
perman
perfum
##aine
##icers
##eles
##eless
##eliners
##ivity
##thi
##then
##throws
##theless
##geons
##lear
bystand
manoj
stad
sticks
##umbra
forfe
trac
trims
beob
bexy
##ira
##amel
##ampo
##amago
##utta
anand
anang
anchorge
##acing
##acier
##peed
##ours
reind
rating
##staff
1025
1073
1044
1070
1078
1090
##ectly
finland
hourgl
bonds
##ques
shed
shob
sherb
shaken
shawn
shredd
shampo
##cending
alchem
avergae
##urity
cann
129
1220
1235
1227
206
203
2080
2010
2016
##ntown
##tained
##otpass
asking
aspeed
concess
159
1512
##istol
##istocr
##udi
##udia
##egates
##opedi
weather
placing
diference
##ction
chandan
chudi
leela
summed
summing
extr
exhibition
exectly
orm
##area
##arett
##arell
##itya
rateper
##phin
remits
carina
caramel
minor
saline
##ossible
3025
3081
257
253
2525
2527
2564
comparis
allthe
aman
americ
ambul
valiant
resets
##abola
##abras
505
501
5040
5060
401
403
4025
4032
4096
##ounding
##oundary
intermedi
intergers
maroon
10010
whichever
suits
##ffield
coe
coal
travlled
##apers
##apple
grain
602
joes
squre
aristocr
meat
meant
drier
producess
163
1660
1612
poe
poker
114
1150
1110
1140
1152
1182
invited
141
143
1428
1880
1852
1890
1856
deeper
dexter
sheffield
anna
##ishi
fees
feel
features
soaps
sohan
sofa
personnel
notation
decb
cuban
maker
249
2450
2440
2460
2468
redo
133
1375
0008
0006
0001
0004
00035
00027
00033
00010101
bristol
ungr
unsh
scout
scales
scenar
452
45983
newsp
roe
earrings
opted
19000
1955
1961
peas
peel
367
369
3650
texas
disk
leastvalue
spaced
spite
spades
outlay
goa
gohul
agrees
agencies
weekdays
weekend
801
sims
divisions
productivity
everybody
upper
updated
351
353
3530
halt
##fting
ency
enhanced
blown
blog
fliers
755
75983
##orted
705
rectangularboxes
218
abi
acd
parry
parake
parlor
parabola
174
177
1750
1734
1764
1792
##epers
surcharge
overthrows
22000
saleem
##position
1205
elan
ellen
elaine
leftmost
##ouped
asset
assorted
322
321
3250
3240
658
6514
century
matthe
maturity
grouped
groupings
sew
seal
trial
285
tripthen
wides
differently
481
4864
download
movers
retraces
thrived
1504
shopper
426
4230
needle
slowed
roommate
5599
5568
724
indirect
indira
##clopedi
amongs
266
261
233
2350
2345
receiveduniform
stockpile
sqft
entries
rafting
doug
278
273
alongside
##redients
replied
alcoholic
541
544
prexter
600000
examined
856
obtainedby
consistent
consistently
##ourne
calcutta
cubicle
sony
tomek
645
64000
##tsdale
338
332
3360
3364
listening
fours
800000
449
4455
529
523
5216
aditya
344
loe
loaves
lopez
edward
retailers
putting
plots
plotting
995
readers
1406
servers
lettuce
combo
318
316
3100
310000
rubies
468
4600
4665
lands
maya
1804
throughout
6268
angled
anglets
transmitter
jarry
1101
surveys
377
437
43000
4340
aviv
632
nonoff
leaking
copier
yardage
janet
##205
##2012
##2013
ideal
3830
3854
3889
syam
968
964
969
9671
belug
496
4900
consumable
samples
1256
12500
supplied
junction
957
9500
deepthi
studying
783
7800
7855
8450
474
4725
4761
delegates
provides
quartered
quarterback
685
6840
bankers
##letis
##atory
geet
glen
glob
glacier
strange
steam
steering
removing
581
828
8230
blackboard
576
571
573
5700
cleans
678
676
denali
verification
verandah
logx
logic
departmental
764
7600
76000
##404
982
984
983
9873
nearly
415
4136
8796
tempor
motorbike
6100
norms
816
514
5100
erased
##zzle
##zzarell
##okeepers
6975
dana
1305
1307
150000
chooses
centerpiece
rained
bala
relay
overtaking
595
598
5900
888
windsh
guard
gujar
sodas
lightest
application
waer
experts
1986
rolling
sunrise
palabras
890
897
899
8900
watched
budgeted
donkey
747
749
7400
74000
7435
863
8600
railroad
various
barkely
realize
likewise
contribute
waited
7777
927
germany
charities
constraint
maintainthe
birch
birming
campaign
cheque
falling
ladies
ladders
conditioner
##book
943
##368
reverses
batteries
054
1907
initiallyin
mozzarell
1701
1704
vertically
7952
hectare
128000
##355
ashwin
ashtik
graduation
attempting
hikes
hiked
hiking
millisec
paula
13500
12600
butterfl
freight
##157
repeats
continuing
uti
utilized
##751
tara
picasso
tenths
dresser
dressings
clearance
9783
misses
unchanging
bouncing
fleas
penumbra
chlorine
undertaken
cereals
flights
experimental
carey
careful
handshake
7350
magoosh
thieves
advance
televisions
046
lapis
rotate
sophia
grandma
develops
developed
flagstaff
913
bulls
lattice
rebus
rebounding
kaya
pupiles
saras
saramago
saree
antony
accompany
concentrated
714
pigs
performed
vegetables
displayed
federer
hunt
hearts
99999
037
ccb
prisms
shallow
velocities
blend
blended
eighteen
pintu
carolina
14500
130000
flashlight
vacationing
parent
2222
darren
keys
racecour
20468
springfield
tanning
surrounds
labours
alphabets
hitting
sanjay
sanoop
15500
involves
pigeons
malfunct
nineth
nevertheless
16800
athens
neckties
pillows
1092
1396
1394
1393
smithy
0017
provinces
constructor
bhatia
bhaskar
sailor
trying
1623
1176
submarine
impossible
bangles
hoop
susna
##iterate
##iterrane
channels
18900
dispens
darkness
conveyence
uploads
herself
punith
ssthe
sswas
society
urn
waters
wattage
theatre
0077
frequently
migrants
athletes
tubes
##8472
12200
carlisle
maharash
arrangements
cauliflow
graveling
cigarett
dylan
eyeliners
euros
puzzle
tailor
algebraic
secretaries
##ussion
assigns
calculations
strawberry
6905
antiques
washington
coconuts
havenotpass
jamie
jennifer
louisa
vinoth
stipulation
20122012
30103
compartment
littermate
scottsdale
steakhouse
accidentally
traditionalist
hundredths
linearly
afce
luck
lucia
lucky
##bean
howmany
quickly
revolve
bbq
fiscal
giri
hoping
ngo
nagar
pulling
twelve
externally
carnival
textbook
72519
instalment
breeding
thousands
exhausted
penny
varandah
inflation
tools
12401
clerks
discovery
3553
elimination
eliminated
469157
sandwiches
erasers
97500
avenue
avenues
fingers
fingered
illiterate
lakh
lakhs
sssalary
sssupervisor
151022
possibility
sequentially
27452
husbands
ronaldo
sswhen
sswhose
suddenly
shooting
published
publishing
dartboard
larget
pitcher
soybean
tangent
tags
zookeepers
ingredients
prisoners
beverages
123678
amateurs
jointly
poetry
183652
lifesaving
54671
definitions
52416
inserted
rhinoceroses
preparatory
20132013
extremes
neighbors
1941384
raspberry
ribbons
austin
bipin
boutique
bhuvan
cotton
downtown
dolphin
dante
dfrac
dominos
famous
gwen
gokul
http
jaime
jjj
kureishi
kelsey
kitchen
license
mudit
oundary
pentagon
puddle
pineapple
pediatric
rachel
rabbits
romano
server
siri
signing
source
sisters
sabi
sushil
tumbler
umbra
welder
wildlife
yadav
theleast
theresa
infected
isoceles
whistle
permanent
perfume
bystander
stadium
forfeits
traci
beobtained
anangletis
reindeer
hourglass
shobha
sherbourne
shredded
shampoos
alchemerion
extras
ratepercent
comparisons
american
ambulance
intermediate
aristocrat
producessells
16128
ungrouped
unshaded
scenario
newspapers
19614181
encyclopedi
parakeets
matthew
559981
tomeka
62684
nonofficers
beluga
global
temporary
69758472
windshield
gujarati
donkeys
birmingham
mozzarella
79523
ashtikar
millisecond
butterflies
accompanying
racecourse
malfunction
##iterranean
maharashtra
cauliflowers
cigarettes
havenotpassed
encyclopedias
080
040
073
0355
736
716
712
836
934
ah
aj
az
ais
aec
ape
aeg
aking
aisle
auniform
bt
bp
bf
bess
boss
benn
bath
bby
bern
cb
cag
cens
cages
dal
dor
dom
dum
dir
dream
dens
dues
dames
dub
density
diluted
eh
ec
eill
euc
esp
fg
fon
fum
fth
fol
fib
fire
fives
fath
fthe
fault
fbc
gk
gf
gol
gem
gab
gang
gics
gonz
hg
hx
hum
hree
hares
hars
hier
hob
hope
holes
hath
hits
hll
hanging
ih
jat
jav
jess
jamal
jaw
jhon
kh
kc
ket
kum
kol
kam
kut
kale
kink
kings
lt
ls
ly
lf
les
lor
lour
love
lacks
mg
mc
mount
mate
mock
mowed
moses
mission
mik
mothers
nn
nb
nan
nuc
nik
nelly
nutes
nascar
oa
os
oy
ois
oly
ook
oulet
pt
pg
px
pion
pip
peters
pred
pcm
pests
piled
pours
qt
qm
qc
qp
qames
rk
rb
rang
ranges
rash
rosh
rims
rbc
sx
sid
sear
sang
sails
sky
tal
tet
tis
tart
tight
tale
tamil
talk
vx
vf
vor
vast
veen
vant
vla
wi
wb
wo
wen
waking
xc
yud
yhe
zebr
zwill
еу
##ew
##eat
##eed
##eing
##eond
##either
##eimeter
##ews
##ao
##aut
##away
##lip
##late
##small
##561
##yn
##yst
##year
##ypt
##yanka
##rant
##rix
##rov
##rik
##rope
##rits
##iest
##iad
##iph
##iams
##iyanka
##ng
##nce
##ney
##nerm
##gy
##gor
##gle
##gra
##garded
##me
##mp
##mas
##mos
##mem
##mets
##mother
##mful
##86
##862
##844
##824
##819
##680
##640
##631
##210
##212
##215
##273
##262
##248
##231
##160
##115
##190
##132
##131
##171
##184
##46
##49
##43
##425
##415
##452
##424
##431
##437
##4321
##700
##720
##760
##799
##773
##728
##katta
##bed
##bus
##bast
##boy
##balt
##boundary
##has
##his
##him
##hav
##hari
##hours
##oin
##oil
##och
##ole
##odu
##din
##des
##dec
##dge
##dies
##dhan
##jam
##cis
##cut
##cast
##cence
##copes
##cussion
##uent
##uence
##uzz
##unded
##pb
##pq
##pat
##ppers
##war
##who
##wgt
##93
##973
##955
##962
##932
##945
##942
##9404
##vent
##vir
##vest
##volum
##vals
##340
##373
##fit
##fud
##fcase
##zed
thin
thing
thinning
thee
theball
theex
theinter
thearea
theoundary
theboundary
thevolum
##erent
##eria
ofq
##ini
##inet
##inear
##inate
##inches
##inng
##invest
##atr
##atom
##atical
##esupervisor
##nder
##ndiv
ina
ink
inher
infer
inital
info
information
ineither
innerm
ist
iss
iseng
isex
ismade
##reen
##regarded
##aniv
##anks
##anca
##enon
##enom
##edron
andg
andx
andhas
##onment
##onie
##onna
##onica
##arh
##alia
##alypt
tofill
whoses
whales
whenth
##orers
##orient
##oria
##oust
##itly
##itting
##itute
##itites
##asing
##aside
##ilitly
##etan
##etime
##ethi
##ompany
##chester
##ention
##entine
whatis
whatever
ift
ifits
##iser
##ising
##isure
##isants
##ecially
perce
perimet
pereimeter
periph
percussion
##00000
atra
atlant
atmost
##icative
##eling
##elix
##eline
prink
primit
prizes
priyanka
onthe
aremain
##ivating
##ivative
##tha
##thir
##thmet
##thesis
##ersed
##ershop
##imer
##imen
##ayers
##iding
##idst
##idote
##idiate
manish
manner
std
stir
stall
stack
stair
stub
story
stella
stole
tram
trible
trade
troph
bear
beaut
##iraj
##oli
thath
##amics
##amba
##amboy
##uter
##utation
ana
anun
anoth
anup
anita
anwar
anatom
##acocks
##acious
##estic
##igence
##igarh
manyfe
manydays
manysmall
reve
reposition
reorient
numberz
##ache
##aches
proab
proxim
prove
proposition
##stones
1040
1016
1012
1099
1064
1031
10628
10368
##ectives
##ulat
##ulating
frag
frames
##aki
kmps
kmpb
fines
hourr
twos
williams
dayhe
boeing
bodies
comer
comic
compl
comined
##quot
shree
shred
shores
sharm
sharing
alert
alarm
algor
##urch
averageinc
wasting
heab
heavi
##ithm
##place
##players
1230
1215
1221
1224
2040
2060
2030
2048
2090
2032
2024
2056
20368
##ntu
eachother
eachday
thanc
thanks
##otive
##otted
ask
asf
asquare
ascending
asquot
timer
incirc
convers
concept
congr
##allows
trainees
daysres
dayswas
1575
1573
1590
1568
intell
intuit
withmore
priceof
##eght
hismar
##unately
plz
plce
##onde
seceond
##anded
##andbar
##andigarh
##cted
samework
chad
charter
chasing
chetan
church
chandigarh
lefth
leisure
exists
exits
excel
exhib
##usday
##usement
##reasing
ordin
hoursday
studen
##erebus
timeover
##phews
remian
remember
##actly
##active
carve
308
302
307
303
3040
3024
3054
30800
3087
2520
2562
2552
2590
2591
compunded
##astation
allotted
amound
amby
amrits
amusement
valentine
rescue
##assemb
mete
metric
haveinvest
##abian
5025
5021
lengthis
407
4050
4020
4040
4015
4034
4044
4070
4052
watering
nephews
marge
marri
1005
1008
1004
1007
1003
10080
10050
10088
10092
better
suare
distane
wereequally
clip
closes
##ocation
cobalt
areaof
##agine
dividinng
##apaniv
grace
608
607
6016
6075
6048
6088
60900
6095
6029
6069
squash
arto
arabian
apro
appoint
amountof
##pectively
crack
crime
##ducted
dries
drift
driers
drilled
167
1640
1635
1615
1670
1628
1678
1661
1642
1638
poin
##0001
ems
mixer
mixers
118
1180
1130
1116
1162
1192
1183
11400
##prise
otherwise
1450
1420
1410
1425
1455
1470
1427
1452
1464
1488
1419
14300
dividedby
1850
1860
1816
1862
1821
1848
1888
18800
dew
dean
weighting
rectangual
rectangulat
febra
##sons
containning
##ircut
##ircoin
soars
soja
noting
quit
litters
decimals
circus
addvert
##ualte
##oken
244
2430
2436
2435
2415
2475
2464
2456
2445
2492
2496
1310
1330
1315
1378
1390
buntu
0007
0003
00030
00016
00034
00055
00052
0000000
000216
000205
000215
0000001
##ysis
##yscr
brie
brind
brdge
broken
unread
unsc
unba
unless
unorder
uneat
ungra
uncut
scorers
453
4512
4575
4524
4584
4529
4576
newer
role
roonie
optic
menhir
197
1920
1960
1936
1944
1968
1971
19404
19190
peacocks
362
3680
3612
3699
3675
3628
3648
3639
36400
tend
companyto
disregarded
disallows
disassemb
classmates
spies
gof
pointed
agao
808
804
8064
8061
8091
80640
simon
##plements
whoever
mustthe
smita
##oda
remainingplayers
directory
3550
3520
3560
3562
3552
3542
consign
consicative
halft
halting
halves
payal
payble
envir
blanks
blonde
cando
candys
halfyear
flamboy
758
757
759
7560
7562
7528
7589
discounting
purify
purification
approach
playoff
##arging
708
702
701
7080
7020
7025
marksman
marksof
populating
2140
2160
2155
2128
2145
abce
abstr
abducted
constants
acoust
##ucing
jobif
parcle
parcel
parcles
paroch
obelix
##formulation
originated
179
1740
170000
##eperm
909
9088
9011
90510
surgeons
surprise
resting
##iend
capt
2280
2210
2234
2268
2288
2211
2287
22932
radil
radix
radha
self
1204
1207
12015
kilo
ellip
##atedlear
rowers
scholl
makein
makeing
getaway
##trip
##traction
platfr
radial
assisants
328
327
3220
3230
3298
3214
3213
3294
3239
milkmen
655
651
6580
6525
6535
6564
6524
6579
centres
centimer
matrix
sean
sends
seek
sebast
sevent
seaside
##itioners
schoolchild
286
284
28000
2836
2855
anywhere
0025
0015
0073
0048
0088
0010101
00205
differentiate
488
486
487
4860
4824
48500
downward
retires
girlfr
##keeperm
businessman
thrusday
150100
opposites
forming
shopkeeperm
4216
4234
4278
30012
commences
commuter
needles
johns
johnsons
slots
sliced
slandbar
##werhours
subtraction
558
552
551
5555
5565
##enced
ordert
722
721
723
7225
7224
7284
72900
indra
indiff
indians
begun
beggar
computed
##portformulation
arithmetical
emptys
2640
2660
2652
2678
2690
2664
patience
patty
##teenth
239
2380
2334
2344
2370
2348
entry
raz
##pended
2783
2795
2782
27300
548
5475
5478
5448
5468
5454
54210
roundtrip
premis
preci
precis
preethi
maximun
maximize
maximizing
engages
somebody
calif
cardbox
4005
4008
4004
4003
##ucture
858
8550
8562
8587
8569
8538
8597
85184
85962
##periness
periodically
defectives
writes
surfacearea
institute
candidateswho
calcatta
calcualte
phenom
circulars
circularplace
recall
recast
recover
reconna
sona
sonali
6450
6440
6430
64500
6433
rightmost
337
3320
3315
3362
3332
3361
3341
##tracted
5650
5636
5678
8001
4410
4499
4458
4472
526
522
5225
5275
5264
5292
5266
5294
5265
52115
insists
adi
adoles
depot
346
341
34000
3450
3435
3434
3421
3432
3456
34500
whendiv
loot
looks
loaf
impor
imersed
imagine
implements
headaches
reprodu
packing
packaged
##issance
floors
floored
posters
postage
exceeded
25073
##807
398
399
3900
3940
3960
3999
3927
3923
39424
smalleris
farming
998
9975
9990
reader
14080
140800
biolog
biked
biote
bianca
letting
##iful
315
3120
3198
3164
3192
31111
31100
467
4680
4650
4673
4664
4624
4671
4685
46800
46452
xyhave
billy
roadway
medians
mediterranean
1802
collar
collars
collinear
collocation
activated
627
623
62000
6235
6255
6270
62216
planar
transposed
translate
elections
1105
1104
1103
11070
array
##509
2402
surveyof
376
373
3795
##iume
431
439
4320
4312
4375
4321
4332
4356
4371
43628
4386
visible
635
638
631
637
63000
6335
6348
6345
6385
nonagon
copiers
12004
1200000
departed
jana
jancy
indeed
pooling
ponds
villa
##20212
shipmem
eleventh
387
38000
3855
3897
topic
topper
levels
airthmet
662
661
664
66000
6650
6625
66900
6695
961
9634
9679
498
492
49000
4950
4940
4960
4970
4913
##1011
footat
295
297
293
2920
2940
2999
2952
2928
2978
2923
sammer
sandi
sandra
1255
1258
1251
1254
1253
125000
12521
suply
supplement
jungle
958
952
954
9540
9599
9548
9568
900000
fourths
785
7899
7875
7844
7848
780000
7858
7819
846
842
844
8410
8435
84942
winchester
operative
distributing
478
4750
47500
sixteenth
providing
689
683
68000
68400
gender
locations
creature
creatures
gloria
ocd
mathematical
strain
structure
changein
stoppage
steal
depositing
observing
observable
initials
587
5840
5830
5824
5888
5829
826
827
829
823
8210
8236
8215
8261
8269
caste
castrov
specify
specimen
5720
5768
5766
6700
6750
6720
6735
6721
6784
6785
6789
700700
##cribes
100000000
coffe
joinedhim
sita
batsmen
callie
veronica
graders
gradually
harish
harbor
harmful
loga
logb
logc
reputed
reputation
761
767
76800
7687
succession
531
534
537
5340
5399
5355
5321
5328
53900
5366
5395
53824
9855
9890
9854
9823
untagged
paths
pathway
418
411
4128
41720
872
874
879
8700
8720
8795
sprint
motorbo
611
6134
6124
61900
6139
6149
1055
1052
1051
signific
axe
##ronts
81000
8110
8160
8192
golds
golden
##ober
semester
2108
##2514
513
5136
5134
5161
5124
5184
51132
desired
descending
describes
mods
6936
6912
69900
traded
1446
14452
14456
absence
1301
cyclists
1500000
choosen
rains
##iciency
sundaes
sundae
balan
balone
midpoints
useful
pizzeria
feeds
59000
5915
5921
5998
5913
5922
1086
108000
881
884
887
889
883
8840
8855
helper
windy
guide
dealing
rhoda
rana
1987
19832
19845
admitting
filed
fille
friendly
budwe
894
8998
8927
watching
##mediterranean
climate
majoring
jills
furthermore
745
748
742
744
7420
865
86510
86799
estates
garments
##athy
barley
facial
778
774
777
77000
7720
7740
deducing
helpers
924
923
9230
9211
9292
92355
##riel
4802
knew
avgwgt
##3031
distinctly
powered
investmentsin
shorts
collects
941
##36373
batter
055
056
053
0568
835
833
8310
8340
8325
8337
catching
moore
1702
##chnology
broader
verticals
790
795
792
794
7900
7920
7921
7927
1287
1289
12800
debate
debating
radioactive
attemp
##3536373
status
statistic
##amental
abcpq
2206
22050
curve
millk
millimeters
1029
10290
1127
1129
11200
11248
11211
1356
1351
##rahedron
subset
programme
wordmediterranean
lunches
##16171
##124
##12131
bearsa
##154
##342
##3448
##3432
##343536373
repeating
competitor
16582
flowery
6502
65025
bowler
bench
benjam
negatively
##755
##759
sufficiency
140000
1400000
begining
effects
dinley
pictures
alternately
alternating
converted
13600
13698
daughters
##thanks
fridays
066
061
internally
17500
2704
##738
##731
quartely
13225
assembled
airports
photosyn
970
9720
9773
9719
9785
saw
flea
moli
molten
##6231
chlorination
22500
2304
raju
rajat
rajdhan
8501
treated
rode
envelops
vendors
hillock
beaten
showroom
023
731
7380
7314
7392
##217
##219
##213
thereforedec
similarly
advised
085
086
087
0873
0823
08216
049
0478
0432
0483
mortar
rotor
rotated
rotations
1045
1048
1049
grandmother
developer
declined
2166
5505
automotive
southwards
017
91000
cultural
cultivating
ploughs
11002
110000
7201
derivative
nyc
##702
##7035
##986
1490
1491
decreasingthe
loads
badamba
hammered
madan
madhav
saris
##equan
antidote
drums
11111
111111
optimal
juggl
713
7150
7125
880702
cabinet
piggy
turning
alteration
1213
12160
plummets
1345
1348
4329
buffalo
huge
henrik
renee
##know
##ercans
likerebus
999936
999999
999975
999991
polygons
labeling
appearances
096
097
093
0384
938
931
9375
9321
##529
##78273
beekeeper
1276
1272
1274
1279
discussion
200300
6402
64025
dieselto
071
0727
0729
blends
##4827
##903
##323
##3233
##32425
certified
1456
1457
2424
substances
organizers
credits
sentence
sentenced
1385
1386
1387
1383
13800
13860
accepts
splits
##688
##645
1014
1019
1245
1242
2045
2047
1156
324561
holidays
primary
practices
practitioners
qualify
qualifying
21200
540000
elevation
hemispherical
tanu
telling
marathi
discharging
surrounding
289437
grazed
photographers
owes
##2452
##243448
fortunately
1551
1557
15540
19500
19532
32519
6754
breaking
coupons
malati
2011
2014
224000
severe
severally
62500
62519
alphabetically
strengths
00008
damaged
martins
##8885
athe
athul
1565
1569
15625
15698
15652
25268
1311
1313
barbershop
4106
4107
680680
9506
pillow
##5632
thirce
1096
1097
10976
109300
1395
opponent
biking
6202
62025
detention
mysoon
rushed
sadaf
prastha
bogies
1239
12300
12348
123454321
12344321
amithab
lenghtwise
11780
11730
18396
simplest
overheads
854973
2904
guaranteed
0000120
0000110
sushi
suspended
taj
taequan
voiume
hexa
checking
leads
interchanges
18480
18456
1894
45678
dispense
3333
33300
33320
looked
3105
3108
uploaded
5808
daal
ltrs
message
##14243448
1666
16698
devastation
232342
232323
strikes
christmas
butterfly
0254
02554
forecast
golfing
tube
venus
warppers
##193
##138
##1379
##422
therare
inequities
##ornia
1076
1077
1229
1223432
1517
cloud
148000
1429
14200
investorsin
2451
telescopes
82500
82519
6702
67025
dennison
51200
51216
guessing
thirtyone
cigars
puja
skyscr
version
versus
##79759
management
steram
20210
confronts
15400
wealthiest
13605
13602
13604
13603
bushes
7538
1789
17820
1782452
17698
slowers
56700
3486
348340
antique
inequalitites
celebrate
municipality
9402
9409
louis
ticked
##233
thesolution
thesportformulation
1033
20768
10010000
100100000
superior
1938
19332
19393
flavors
slipperiness
5476
5474827
64208
64206
64202
64201
64204
64207
64209
64203
5689
568219
3969
5306
5301
fulfills
fulfilled
gpuzz
jenee
jaya
jayes
lucknow
mnbc
##946
permeter
20568
allocations
185193
quickest
172835
assesses
42500
4241
42400
42398
2691
2697
54202
54201
54204
54203
46590
deliver
1000000000
repetitions
efficiencies
dynamics
ganpat
hangs
lovely
october
sounds
viewers
##839404
attracted
121212
ornamental
2553
1465
14698
unpack
4582
4587
1947
19432
36500
outcomes
72514
725760
2769
272738
4351
circumscribing
repaying
successfully
41381
enterprise
594000
barrels
numeratr
magnitude
ignoring
caterer
dune
dungeons
nitric
teddy
tedious
##2232425
##293031
##7654321
##harika
##3977
inflow
influx
influence
##archical
topsoil
101010
shoots
intended
plaudia
plaidst
champions
integratedlear
50248
11600
116000
18600
24336
peopl
2197
eliminate
3267
23100
23700
852755
advertisement
advertising
469111
469160
469138
2926
banksat
9862514
beneficiary
##7891011
submitting
enterprising
explanationthanks
learning
mowers
xxinches
incentive
202541
concern
509509
arbour
16125
16807
18144
bundles
possibly
possibilities
sequential
sequnce
2718
2717
2743
642986
33490
33466
immidiate
9974
433124
4300631
4300231
4300431
4300731
cameron
9886
69696
categories
knitting
##75143
generates
grapefruits
refueling
hypothetically
12345679
12345654321
1234567654321
1234567891011
fishery
44444444
44444445
44444442
44444438
92555
9156
efgh
larry
soybeans
tangents
wagons
zoey
##faircoin
##alarywas
forgotten
trays
beverage
analog
analyst
analysis
##pezium
10154
12702
129024
amateur
grabs
grabbed
groomer
poetical
11901
18365
000001
45700
45454
19732
90189
657903
28160
28808
48456
4893
42120
427751
lifetime
definite
64816
565945
56256
527435
3146
62976
629751
62975143
4347
7863
78654
7895632
operatoris
586645
8247
88888885
rhinoceros
8956231
preparation
0767
1234562
extreme
neighbour
19413844
learns
raspberries
ribbon
0204
0203
akbar
haircut
moulded
nieces
niharika
nisha
nishita
olive
olives
ravish
raviraj
##blefud
oftheir
107800
cannot
cannever
12351
20168
concession
concessions
15968
40378273
18522
0008154
0006688
acde
658217
724946
indirectly
54179759
foursome
964807
6859
geeta
geetha
67830
8902
927435
carefully
hoops
dispenses
dispensed
19413846
19413843
pentagons
pediatrician
pediatricians
malfunctioning
7164
ahd
ajith
aisles
apex
aegf
btw
benny
bernie
caging
census
dorathy
domestic
dumping
dirt
denser
dubblefud
eucalypt
especially
fonzie
fumed
folder
fiber
fathers
gfhave
golu
gemstones
gabriel
gonzalia
human
haresh
harsha
hierarchical
hobby
hathim
jatin
java
jessica
jawans
khans
ketaki
kumar
kolkatta
kamla
kutty
kinkos
lying
lesley
lorry
lourdes
mcq
mounting
mikes
nancy
nuclear
niki
osmos
olymp
ookm
pgm
pionted
pipeline
petersons
predict
rkg
rangoli
rashmi
roshini
sidney
searched
talking
tetrahedron
tightrope
voracious
veenapaniv
vantakes
vlaudia
wieght
wbat
xcompany
yudhis
zebras
##8621
##81920212
##262728
##41516171
thinnings
theballs
theextracted
theintervals
thevolume
inheriting
inferior
initally
innermost
isengaged
isexactly
##reened
whosesalarywas
whenthesupervisor
perceived
perimetri
periphery
atrapezium
atlanta
prinka
primitive
aremainder
stirred
stacked
stairs
stubs
tramping
trophy
beautiful
anunfaircoin
anothe
anatomy
manyfewerhours
manysmallercans
reveals
proabilitly
proximity
101600
10996
fragrant
complimentary
shreehari
sharmila
alerted
algorithm
averageincome
heabsent
heaviest
asquotient
incircle
conversation
congruent
daysrespectively
157300
intelligence
intuitively
hismarks
chartered
lefthanded
leisurely
exhibit
ordinary
timeoverthe
remianing
amritsar
haveinvestments
404415
marriage
100889
artois
aprofit
appointed
crackers
1635773
16781
18888
rectangualr
febraury
addvertisement
13107
13787
000305
000168
000343
0005521
0005215
00000001
0002152
briefcase
brindavan
unscreened
unbaised
unordered
uneaten
ungrazed
1936248
19683
19714181
362855
disassemble
80641
35423
consignment
halftime
environment
halfyearly
flamboyant
playoffs
215546
abstract
acoustics
parochial
223431
228712
ellipse
platfrom
329864
652543
656452
65793
seekers
sebastian
seventeenth
schoolchildren
482466
girlfriend
shopkeepermix
42787035
slandbara
722425
728400
indifferent
2664000
23341379
54487
premises
precious
precisely
california
856973
853845
859722
859622
phenomenon
recovered
reconnaissance
445876
527500
529435
adolescence
whendivided
importer
reproduces
biological
biotechnology
625573
43717
43628233
638521
shipmemts
airthmetic
96348621
2952400
297832
1252140
supplementary
9568422
7844213
784839
58408
582964
821562
8261955
826924
castroville
53403977
532869
985420
87953
motorboat
61347
significant
819200
budweiser
899830
86510529
8679921
929260
abcpqra
wordmediterraneanin
##1213141516171
##343536373839404
165826
benjamin
photosynthesis
rajdhani
thereforedecreasing
111119
juggler
henrikh
##3233343536373839404
3245613
28943712
##142434481
forecasts
12234322
skyscraper
1939392
gpuzzles
##2232425262728
##2930313233343536373839404
plaidstache
integratedlearning
98625147
12345678910111213141516171
analysts
62975148
eucalyptus
osmosis
olympiad
veenapaniville
yudhisthir
##819202122232425262728
##2930313233343536373839404142434481
12345678910111213141516171819202122232425262728
123456789101112131415161718192021222324252627282930313233343536373839404142434481
